{"vocab_size": 2000, "vocab": ["\n", " ", "'", "'अभ्यास", "'अभ्यास'", "'उ", "'उद्ध", "'उद्धरे", "'उद्धरेद", "'उद्धरेदात", "'उद्धरेदात्", "'उद्धरेदात्मनात", "'उद्धरेदात्मनात्मान", "'उद्धरेदात्मनात्मानं", "'कर्म", "'कर्मण", "'कर्मण्ये", "'कर्मण्येवा", "'कर्मण्येवाध", "'कर्मण्येवाधिक", "'कर्मण्येवाधिकार", "'कर्मण्येवाधिकारस्त", "'कर्मण्येवाधिकारस्ते", "'कर्मयोग", "'कर्मयोग'", "'क्रोध", "'क्रोधा", "'क्रोधाद्", "'क्रोधाद्भवति", "'नैनं", "'यदा", "'वैराग्य", "'वैराग्य'", "'स्थ", "'स्थित", "'स्थितप्र", "'स्थितप्रज्ञ", "'स्थितप्रज्ञ'", "(", "(अव", "(अवतार", "(ई", "(ईश्", "(ईश्वर", "(ईश्वर)", ")", ",", "-", ".", ":", "?", "E", "Ex", "Expl", "Expla", "Explain", "H", "Ho", "How", "I", "K", "Kar", "Karma", "Karma?", "W", "Wh", "What", "Why", "a", "ab", "abou", "about", "ac", "am", "an", "and", "ang", "anger", "anger?", "ar", "at", "b", "c", "ce", "con", "confu", "confused", "confused.", "contr", "contro", "control", "d", "de", "dea", "deal", "dec", "decis", "decision", "decision?", "det", "detac", "detach", "detachme", "detachmen", "detachment", "detachment?", "di", "dif", "diff", "diffi", "diffic", "difficu", "difficul", "difficult", "dis", "disc", "disci", "discipl", "disciplin", "discipline", "discipline.", "do", "do?", "e", "er", "f", "fa", "face", "fai", "fail", "failure", "failures?", "fe", "fear", "fear?", "fee", "feel", "find", "fu", "fut", "future", "future.", "g", "h", "i", "im", "impo", "impor", "import", "importan", "importance", "in", "ind", "inn", "inner", "ion", "is", "k", "l", "li", "life", "life?", "lo", "lost", "m", "ma", "mak", "make", "man", "many", "me", "mean", "meanin", "meaning", "mind", "mo", "moti", "motiv", "motivat", "motivate", "motivated", "motivated?", "my", "n", "o", "of", "on", "ou", "ov", "over", "overc", "overco", "overcome", "p", "pe", "pea", "peace", "peace?", "pl", "po", "pr", "prac", "practi", "practice", "pu", "pur", "purpo", "purpose", "r", "re", "rel", "relat", "relation", "relationsh", "relationshi", "relationship", "relationships?", "rest", "restl", "restle", "restless?", "ri", "rig", "righ", "right", "s", "s?", "se", "sed", "sh", "shou", "shoul", "should", "so", "ss?", "st", "sta", "stay", "stre", "stres", "stressed", "su", "suc", "succe", "success?", "t", "th", "the", "ti", "to", "tr", "tru", "true", "u", "ure", "v", "w", "wi", "with", "x", "y", "ं", "ंत", "ंध", "ः", "ः।'", "अ", "अं", "अंत", "अंतर्", "अंतर्मनात", "अंधार", "अंधारात", "अग्", "अग्नी", "अज्ञा", "अज्ञाना", "अज्ञानामुळेच", "अति", "अतिरे", "अतिरेक", "अत्य", "अत्यंत", "अध", "अधर्", "अधर्माची", "अधिक", "अधिकार", "अधोग", "अधोगती", "अधोगतीला", "अन", "अना", "अनावश्यक", "अनि", "अनिश्च", "अनिश्चित", "अनु", "अनुभव", "अने", "अनेक", "अनेकदा", "अप", "अपयश", "अपयश,", "अपे", "अपेक्षा", "अभ", "अभ्यास", "अर्", "अर्ज", "अर्जु", "अर्जुना", "अर्जुनाला", "अर्थ", "अल", "अलि", "अलिप", "अलिप्त", "अलिप्तता", "अव", "अवस्थ", "अवस्था", "अशा", "अस", "असतात.", "असते.", "असतो,", "असतो.", "असा", "असावा.", "असूनही", "असो", "अस्ति", "अस्तित्", "अस्तित्व", "अह", "अहं", "अहंकार", "अहंकारावर", "आ", "आंत", "आंतर", "आंतरिक", "आच", "आचर", "आचरणात", "आण", "आणण्याचा", "आणण्यासाठी", "आणि", "आत", "आतच", "आत्", "आत्म", "आत्मज", "आत्मज्ञ", "आत्मज्ञा", "आत्मज्ञाना", "आत्मज्ञानावर", "आत्मविश्वास", "आत्मा", "आत्म्या", "आत्म्याला", "आदर", "आधार", "आधारित", "आप", "आपण", "आपणही", "आपल", "आपला", "आपली", "आपले", "आपल्या", "आपल्याला", "आय", "आयु", "आयुष्यात", "आयुष्यातही", "आवश्यक", "आस", "आसक्ती", "आहात", "आहात,", "आहात.", "आहे", "आहे,", "आहे.", "आहे:", "आहे?", "इ", "इत", "इतके", "इतर", "इतरां", "इतरांकड", "इतरांकडून", "इतरांशी", "ई", "ईल", "उ", "उच", "उचलत", "उठा", "उत्त", "उत्तर", "उद्", "उद्द", "उद्दे", "उद्देश", "उद्धार", "उपाया", "उपायाची", "ऊ", "ए", "एक", "एकट", "एकटे", "एका", "एकाग्र", "एकाग्रतेने", "ऐ", "ऐक", "ऐकण्या", "ऐकण्यात,", "ओ", "ओळ", "ओळखा", "ओळखा,", "क", "कठी", "कठीण", "कड", "कडे", "कद", "कदा", "कदाच", "कदाचन", "कदाचन।'", "कध", "कधी", "कधीना", "कम", "कमळा", "कमळाचे", "कमवावे", "कमी", "कर", "करणे", "करणे,", "करण्या", "करण्यात", "करण्यातही", "करण्यावर", "करण्यासाठी", "करता", "करतो", "करतो.", "करा", "करा.", "करावा,", "करावे?", "करू", "करू?", "करून", "कर्", "कर्त", "कर्तव", "कर्तव्य", "कर्तव्या", "कर्तव्याला", "कर्तव्यावर", "कर्म", "कर्मा", "कर्माचा", "कर्मात", "कशी", "कसा", "कसे", "का", "काढ", "काढू", "कापू", "काम", "कामात", "काय", "काय?", "कार", "कारण", "कारणी", "कारणीभूत", "कार्य", "कार्यक्षमता", "काल", "काल्", "काल्प", "काल्पन", "काल्पनिक", "काही", "काहीतर", "काहीतरी", "कि", "किं", "किंवा", "की", "की,", "कु", "कुठे", "कुठेही", "कृ", "कृती", "कृतीत", "कृतीवर", "के", "कें", "केंद्र", "केंद्रित", "केले", "केलेली", "केव", "केवळ", "को", "कोण", "कोणता", "कोणताही", "कोणत्या", "कोणत्याही", "क्", "क्त", "क्ती", "क्र", "क्रोध", "क्रोधातून", "क्ष", "क्षम", "क्षमता", "क्षा", "ख", "खरा", "खरे", "खऱ", "खऱ्या", "खा", "खो", "खोली", "खोलीत", "ग", "गर", "गरज", "गा", "गाज", "गाजवू", "गु", "गुण", "गो", "गोंध", "गोंधळ", "गोंधळले", "गोंधळलेला", "गोष्ट", "गोष्टी", "गोष्टीं", "गोष्टींना", "गोष्टींपासून", "ग्", "ग्र", "ग्रा", "ग्रास", "ग्रासले", "ग्ला", "ग्लानिर्", "ग्लानिर्भवति", "घ", "घड", "घडत", "घडतात.", "घा", "घाई", "घाईघाई", "घाईघाईने", "घाब", "घाबर", "घाबरत", "घे", "घेण्यासाठी", "घेत", "घेतलेले", "घेतो", "घेतो)", "घेतो).", "घ्या", "घ्या.", "घ्यावा", "घ्यावा?", "च", "चं", "चंच", "चंचल", "चढ", "चढ-", "चढ-उ", "चढ-उतार", "चा", "चाच", "चाचप", "चाचपडत", "चालत", "चि", "चिं", "चिंत", "चिंता", "चिंतेने", "ची", "चे", "चै", "चैत", "चैतन", "चैतन्यम", "चैतन्यमय", "च्या", "छ", "छि", "छिन", "छिन्", "छिन्द", "छिन्दन", "छिन्दन्ति", "ज", "जग", "जगतात", "जगतातील", "जगा", "जा", "जाण", "जाणीव", "जात", "जातो", "जातो,", "जाळ", "जाळू", "जावे", "जावे?", "जीव", "जीवन", "जीवना", "जीवनाकडे", "जीवनाचा", "जीवनाचे", "जीवनात", "जीवनातील", "जे", "जेव्हा", "जो", "जोपा", "जोपासा", "जोपासावी?", "ज्ञ", "ज्ञा", "ज्ञान", "ज्या", "ज्याप्रमाणे", "झ", "झा", "झाल", "झाल्या", "झाल्यामुळे", "ञ", "ट", "टा", "टाळा", "टाळावा.", "ठ", "ठर", "ठरते.", "ठा", "ठी", "ठे", "ठेव", "ठेवल्यास", "ठेवा", "ठेवा,", "ड", "डत", "डो", "डोका", "डोकाव", "डोकावून", "ढ", "ण", "णात", "णार", "णे", "ण्या", "ण्याचा", "ण्यात", "ण्यासाठी", "त", "त,", "तर", "तसे", "तसेच", "ता", "ताकद", "तात", "तात.", "तार", "ति", "तिला", "ती", "तीच", "तु", "तुझ", "तुझा", "तुझी", "तुम", "तुमचा", "तुमची", "तुमचे", "तुमच्या", "तुम्", "तुम्हा", "तुम्हाला", "तुम्ही", "तुल", "तुलना", "ते", "ते.", "तेच", "तेने", "तेव्हा", "तेव्हाच", "तो", "तो,", "तो.", "त्", "त्त", "त्य", "त्या", "त्याऐ", "त्याऐव", "त्याऐवज", "त्याऐवजी,", "त्याचा", "त्याच्या", "त्यामुळे", "त्यामुळे,", "त्याला", "थ", "थां", "थांब", "थांबव", "थांबवतो", "थांबवा,", "थोडा", "द", "दर", "दह", "दहति", "दि", "दिव", "दिवसात", "दी", "दीर्", "दीर्घ", "दु", "दु:", "दु:ख", "दु:ख,", "दु:खा", "दु:खाचे", "दु:खाच्या", "दू", "दूर", "दृ", "दृष्ट", "दृष्टिक", "दृष्टिको", "दृष्टिकोनात", "दृष्टिकोनातून", "दैनं", "दैनंदि", "दैनंदिन", "दो", "दोन", "दोन्", "दोन्ही", "द्", "द्ध", "द्या", "द्यावे", "द्र", "ध", "धर्", "धर्म", "धर्मस्य", "धर्माची", "धार", "धै", "धैर्या", "धैर्याने", "ध्ये", "ध्येया", "ध्येयाकडे", "ध्येयापर", "ध्येयापर्य", "ध्येयापर्यंत", "न", "नको", "नको.", "नकोस", "नक्", "नक्की", "नक्कीच", "नये", "नये.", "नव्", "नव्हे", "नव्हे,", "नष्ट", "नसा", "नसावा,", "नसावी", "नसावी.", "नसून", "ना", "नात", "नाते", "नातेसं", "नातेसंब", "नातेसंबंध", "नातेसंबंधां", "नातेसंबंधांना", "नातेसंबंधांमध्ये", "नात्मान", "नात्मानम", "नात्मानमव", "नात्मानमवसा", "नात्मानमवसाद", "नात्मानमवसादये", "नात्मानमवसादयेत्", "नात्मानमवसादयेत्।'", "नाश", "नाही", "नाही,", "नाही.", "नाहीत,", "नाहीशा", "नि", "निय", "नियंत", "नियंत्र", "नियंत्रण", "नियंत्रणात", "नियमित", "नियमितता", "निर्", "निर्ण", "निर्णय", "निर्माण", "नी", "ने", "नेऊ", "नेण्यासाठी", "नेह", "नेहमी", "नेहमीच", "नैनं", "प", "पण", "पर", "परि", "परिण", "परिणा", "परिणाम", "परिणामां", "परिणामांच्या", "परिणामांवर", "परिस्थिती", "परी", "परीक्षा", "पश्च", "पश्चात", "पश्चात्त", "पश्चात्ता", "पश्चात्ताप", "पश्चात्तापा", "पश्चात्तापाला", "पहि", "पहिली", "पा", "पाठी", "पाठीशी", "पाड", "पाडतो,", "पाण", "पाणी", "पाण्या", "पाण्याने", "पाण्यावर", "पान", "पाय", "पायरी", "पाया", "पार", "पाव", "पावक", "पावकः।'", "पावले", "पासून", "पाह", "पाहण्यासाठी", "पाहा", "पाहा.", "पाहावे", "पाहि", "पाहिजे", "पाहिजे.", "पु", "पुढ", "पुढे", "पू", "पूर्ण", "पो", "पोहो", "पोहोच", "पोहोचव", "पोहोचवती", "पोहोचवतील.", "प्र", "प्रत", "प्रतिक", "प्रतिक्र", "प्रतिक्रि", "प्रतिक्रिया", "प्रत्ये", "प्रत्येक", "प्रमा", "प्रमाणे", "प्रय", "प्रयत्", "प्रयत्न", "प्रवास", "प्रश्", "प्रश्न", "प्रश्ना", "प्रश्नां", "प्रश्नांना", "प्रश्नाचे", "प्रसं", "प्रसंग", "प्रसंगातून", "प्रा", "प्रामाण", "प्रामाणिक", "प्रामाणिकप", "प्रामाणिकपणे", "प्रे", "प्रेम", "प्रेर", "प्रेरित", "फ", "फक्त", "फले", "फलेष", "फलेषु", "फळ", "फळा", "फळां", "फळांवर", "फळाची", "ब", "बद", "बदल", "बदलण्या", "बदलण्याची", "बा", "बाळ", "बाळगा", "बाळगावा", "बाह", "बाहे", "बाहेर", "बाह्य", "बु", "बुद्ध", "बुद्धी", "बुद्धीचा", "बो", "बोल", "बोलण्यात", "भ", "भग", "भगव", "भगवद", "भगवद्ग", "भगवद्गी", "भगवद्गीते", "भगवद्गीतेमध्ये", "भगवा", "भगवान", "भय", "भर", "भरक", "भरकट", "भरकटत", "भरलेले", "भव", "भवति", "भवि", "भविष्य", "भविष्या", "भविष्याची", "भविष्यात", "भार", "भारत", "भारत।'", "भि", "भिज", "भिजत", "भिजवू", "भी", "भीती", "भीतीवर", "भूत", "भूतका", "भूतकाळा", "भूतकाळाचा", "म", "मज", "मजब", "मजबूत", "मध", "मध्यम", "मध्ये", "मन", "मनन", "मना", "मनाची", "मनात", "मनु", "मनुष्य", "मनुष्या", "मनुष्याचा", "मनुष्याने", "मर्या", "मर्याद", "मर्यादां", "मर्यादांचा", "मला", "मह", "महत्त", "महत्त्", "महत्त्व", "महत्त्वा", "महत्त्वाचा", "महत्त्वाचे", "मा", "माग", "मागून", "माची", "माझ", "माझे", "माण", "माणसा", "माणसाचा", "मात", "मान", "मानणे", "मानवी", "मानस", "मानसिक", "मार", "मार्ग", "मार्गावर", "मि", "मित", "मित्र", "मिळ", "मिळणार", "मिळत", "मिळव", "मिळवणे", "मिळवणे.", "मिळवा", "मिळवावी?", "मिळवावे", "मिळवावे?", "मिळे", "मिळेल.", "मी", "मु", "मुक्ती", "मुक्तीचे", "मुळे", "मुळेच", "मू", "मूळ", "मो", "मोठा", "मोठे", "मोह", "मोहा", "मोहात", "मोहातून", "मोहापासून", "म्", "म्ह", "म्हट", "म्हटले", "म्हण", "म्हणजे", "म्हणजेच", "म्हणून", "म्हणूनच", "म्हणूनच,", "य", "यद", "यदा", "यश", "यशा", "यशाचा", "या", "यां", "यांची", "याचा", "यामुळेच", "यासाठी", "ये", "येईल", "येईल,", "येत", "येते", "येते?", "येतो.", "योग", "योग्य", "र", "रह", "रहस्य", "रा", "राख", "राखणे", "राग", "रागावर", "रात", "रात्र", "रात्री", "रात्रीत", "राह", "राहणे", "राहणे.", "राहण्याचा", "राहा", "राहा,", "राहा.", "राहाय", "राहायला", "राहावे?", "राहूनही", "री", "रे", "र्", "र्ण", "र्या", "ऱ", "ल", "ल.", "लक्ष", "लक्षात", "लत", "लहान", "ला", "लाग", "लागतात", "लागतात.", "लागते.", "लागा", "लागा.", "लागे", "लागेल.", "लाट", "लाटां", "लाटांनी", "लाटांप्रमाणे", "लाटांप्रमाणेच", "लावले", "लावलेली", "ली", "ले", "लेले", "ल्यास", "ळ", "ळा", "ळे", "व", "वर", "वर्त", "वर्तमा", "वर्तमान", "वर्तमानका", "वर्तमानकाळ", "वर्तमानकाळात", "वर्तमानकाळातील", "वर्तमानात", "वले", "वश", "वश्य", "वश्यक", "वा", "वा,", "वा.", "वाट", "वाटते.", "वाढ", "वार", "वारं", "वारंवार", "वारा", "वाळ", "वाळवू", "वावे", "वास", "वि", "विच", "विचार", "विचारश", "विचारशक्ती", "विचारा", "विचारां", "विचारांचे", "विचारांशि", "विचारांशिवा", "विचारांशिवाय", "विचारात", "विचाराने", "विज", "विजय", "विनाश", "विवे", "विवेक", "विशि", "विशिष्ट", "विश्र", "विश्रांती", "विश्रांतीत,", "विश्वास", "वी", "वी?", "वू", "वे", "वे?", "वेग", "वेगळा", "वेळ", "वेळी,", "वै", "वैराग", "वैराग्य", "व्", "व्य", "व्यक्ती", "व्यक्तीचा", "व्यक्तीला", "व्हा", "श", "शक", "शकत", "शकतात.", "शकते.", "शकतो,", "शक्य", "शत", "शत्र", "शत्रू", "शरी", "शरीर", "शस्त", "शस्त्र", "शस्त्रा", "शस्त्राण", "शस्त्राणि", "शस्त्रे", "शा", "शांत", "शांती", "शि", "शिक", "शिकले", "शिकव", "शिकवण्यासाठी", "शिक्षा", "शिस्त", "शिस्ती", "शिस्तीचे", "शी", "शे", "शेव", "शेवट", "शेवटी,", "शोध", "शोधण्याचा", "शोधण्यासाठी", "श्", "श्च", "श्र", "श्रद्ध", "श्रद्धे", "श्रद्धेने", "श्री", "श्रीकृ", "श्रीकृष्", "श्रीकृष्ण", "श्रीकृष्णांनी", "श्वास", "ष", "ष्", "ष्ट", "ष्य", "ष्या", "ष्यात", "स", "सं", "संतुल", "संतुलन", "संपूर्ण", "संय", "संयम", "संसार", "संसारात", "सत्य", "सदु", "सदुप", "सदुपयोग", "सम", "समज", "समजण्या", "समजण्यासार", "समजण्यासारख", "समजण्यासारखी", "समजून", "समस", "समस्या", "समस्यां", "समस्यांवर", "समस्यांवरील", "समान", "समु", "समुद्र", "समुद्रा", "समुद्राच्या", "समो", "समोर", "समोरची", "सम्", "सम्मो", "सम्मोह", "सम्मोहः", "सम्मोहात", "सम्मोहात्", "सम्मोहात्स्मृ", "सम्मोहात्स्मृति", "सम्मोहात्स्मृतिवि", "सम्मोहात्स्मृतिविभ", "सम्मोहात्स्मृतिविभ्र", "सम्मोहात्स्मृतिविभ्रम", "सम्मोहात्स्मृतिविभ्रमः।'", "सर्", "सर्व", "सर्वप्र", "सर्वप्रथ", "सर्वप्रथम", "सर्वात", "सर्वो", "सर्वोत्त", "सर्वोत्तम", "सव", "सवय", "सा", "सां", "सांग", "सांगतो", "सांगा", "सांगा.", "सांगित", "सांगितले", "साठी", "सात", "सातत्य", "सातत्या", "सातत्याची", "सातत्याने", "साध", "साधन", "साध्य", "सामो", "सामोरे", "सार", "सि", "सिद्ध", "सिद्धांत", "सु", "सुं", "सुंदर", "सुख", "सुधार", "सुधारतात.", "सून", "से", "सोडा", "सोडा.", "स्", "स्त", "स्थ", "स्थि", "स्थिती", "स्थिर", "स्थिरता", "स्म", "स्मृ", "स्मृती", "स्मृतीचा", "स्य", "स्व", "स्वत", "स्वतः", "स्वतःच", "स्वतःच्या", "स्वतःला", "स्वतःवर", "स्वर", "स्वरू", "स्वरूपा", "स्वरूपाची", "स्वी", "स्वीकार", "स्वीकारल्यास", "ह", "हा", "हाच", "हात", "हान", "हानी", "हि", "ही", "हीच", "हे", "हेच", "हो", "होईल", "होऊ", "होणार", "होणारे", "होणे", "होतात.", "होते", "होते,", "होते.", "होतो", "होतो,", "होतो.", "होय", "होय.", "होव", "होवो", "होवो.", "ा", "ां", "ांत", "ांती", "ांनी", "ात", "ातून", "ार", "ावर", "ि", "िक", "ित", "ी", "ी,", "ील", "ीव", "ु", "ू", "ूत", "ून", "ूनही", "ृ", "े", "ै", "ैन", "ैनं", "ो", "ोग", "ोड", "ोडा", "ोध", "्", "्ग", "्ञ", "्त", "्ति", "्मान", "्य", "्यम", "्या", "्यास", "्ये", "्र", "।", "।'"], "merges": [["्", "य"], ["्य", "ा"], ["ह", "े"], ["ा", "त"], ["्", "र"], ["आ", "प"], ["ा", "र"], ["ह", "ा"], ["ल", "ा"], ["आ", "ण"], ["क", "र"], ["न", "ा"], ["आ", "हे"], ["्", "त"], ["ह", "ी"], ["आण", "ि"], ["ा", "ं"], ["त", "े"], ["व", "ा"], ["आप", "ल"], ["प", "्र"], ["अ", "स"], ["आहे", "."], ["व", "ि"], ["स", "्"], ["प", "ा"], ["म", "ा"], ["च", "ा"], ["व", "र"], ["क", "ा"], ["ण", "े"], ["ण", "्या"], ["आपल", "्या"], ["ू", "न"], ["त", "ु"], ["र", "ा"], ["त", "ो"], ["न", "े"], ["स", "ा"], ["य", "ा"], ["र", "्"], ["ज", "े"], ["ना", "ही"], ["त", "ी"], ["व", "्"], ["ल", "े"], ["क", "्"], ["च", "ी"], ["ह", "ो"], ["स", "ं"], ["ं", "त"], ["म", "्"], ["व्", "हा"], ["स्", "व"], ["ते", "."], ["च", "े"], ["क", "्त"], ["ि", "क"], ["त", "्या"], ["क्", "ष"], ["ठ", "ी"], ["च", "्या"], ["त", "्"], ["श", "्"], ["क", "ी"], ["आप", "ण"], ["स्व", "त"], ["स्वत", "ः"], ["त", "ात"], ["क", "ार"], ["्य", "े"], ["ि", "त"], ["न", "ात"], ["न", "ि"], ["तु", "म"], ["कर", "ा"], ["म्", "ह"], ["म", "ु"], ["सा", "ठी"], ["व", "े"], ["त", "ा"], ["अस", "ते."], ["तात", "."], ["ी", "व"], ["म", "ो"], ["ण्या", "साठी"], ["ष", "्या"], ["म्ह", "ण"], ["त", "र"], ["्", "ग"], ["ष", "्"], ["कर", "णे"], ["स्", "थ"], ["वा", "स"], ["ां", "त"], ["करा", "."], ["वि", "च"], ["विच", "ार"], ["मा", "न"], ["ठ", "े"], ["क्त", "ी"], ["ज", "ीव"], ["तो", "."], ["ळ", "े"], ["ते", "व्हा"], ["जे", "व्हा"], ["ला", "ग"], ["म्हण", "जे"], ["नाही", ","], ["त", "्य"], ["ध", "्ये"], ["कर", "्"], ["नि", "य"], ["म", "ि"], ["ळ", "ा"], ["क्ष", "ा"], ["प", "ण"], ["प", "र"], ["ष्", "ट"], ["स", "ात"], ["ण", "ात"], ["रा", "हा"], ["फ", "क्त"], ["स", "र्"], ["सर्", "व"], ["श", "ा"], ["श", "क"], ["स्वतः", "ला"], ["म", "ज"], ["आ", "त्"], ["मु", "ळे"], ["ध", "ार"], ["श", "ांत"], ["अ", "प"], ["रा", "ग"], ["मि", "ळ"], ["तो", ","], ["्", "ञ"], ["कार", "ण"], ["निय", "ंत"], ["नियंत", "्र"], ["्या", "स"], ["आपल्या", "ला"], ["च", "ि"], ["भ", "वि"], ["हे", "च"], ["आपल", "ी"], ["व", "्य"], ["श", "ि"], ["ख", "ा"], ["कर्", "म"], ["नियंत्र", "णात"], ["ए", "का"], ["वर", "्त"], ["आपल", "े"], ["म", "ार"], ["मार", "्ग"], ["प्र", "त"], ["क", "ृ"], ["श्", "वास"], ["स", "ु"], ["त", "्त"], ["प्र", "य"], ["प्रय", "त्"], ["प्रयत्", "न"], ["द", "ु"], ["म", "न"], ["ष्या", "त"], ["स्थ", "ि"], ["ी", "ल"], ["क", "ो"], ["द", "्"], ["ल", "ी"], ["तुम", "च्या"], ["ल", "."], ["य", "े"], ["त", ","], ["य", "श"], ["ब", "ा"], ["ो", "ध"], ["का", "य"], ["वा", ","], ["नाही", "."], ["तु", "ल"], ["ज", "्ञ"], ["म", "ध्ये"], ["अप", "े"], ["अपे", "क्षा"], ["अस", "तो."], ["पर", "ि"], ["क", "द"], ["रा", "ह"], ["ा", "वर"], ["ो", "ग"], ["क", "े"], ["क", "म"], ["ं", "ध"], ["घ", "्या"], ["चि", "ंत"], ["चिंत", "ा"], ["ग", "ा"], ["ग", "ो"], ["ह", "ि"], ["भ", "ग"], ["व्य", "क्ती"], ["वि", "श्वास"], ["व", "श"], ["वश", "्य"], ["वश्य", "क"], ["तु", "म्"], ["त", "ि"], ["ब", "द"], ["बद", "ल"], ["कृ", "ती"], ["दु", ":"], ["अ", "ने"], ["स", "ून"], ["क", "ड"], ["य", "ोग"], ["जीव", "ना"], ["द्", "ध"], ["र्", "ण"], ["श", "्र"], ["ी", ","], ["प्रत", "्ये"], ["प्रत्ये", "क"], ["स", "मज"], ["श", "िक"], ["प्र", "मा"], ["प्रमा", "णे"], ["ल", "त"], ["स", "ार"], ["ण्या", "चा"], ["कर", "्त"], ["अ", "ध"], ["घ", "ा"], ["श्", "च"], ["मा", "ण"], ["अ", "शा"], ["ल", "क्ष"], ["तुम", "चे"], ["आ", "य"], ["आय", "ु"], ["आयु", "ष्यात"], ["द", "्र"], ["प्र", "सं"], ["प्रसं", "ग"], ["प्र", "श्"], ["सं", "य"], ["संय", "म"], ["ह", "ात"], ["र", "े"], ["ू", "त"], ["त्या", "च्या"], ["आत्", "म"], ["अस", "ा"], ["श", "ी"], ["हा", "न"], ["स", "े"], ["ज", "ा"], ["व", "ार"], ["श", "त"], ["शत", "्र"], ["शत्र", "ू"], ["नात", "े"], ["नाते", "सं"], ["नातेसं", "ब"], ["नातेसंब", "ंध"], ["भग", "व"], ["भगव", "द"], ["भगवद", "्ग"], ["भगवद्ग", "ी"], ["भगवद्गी", "ते"], ["भगवद्गीते", "मध्ये"], ["अ", "र्"], ["सं", "तुल"], ["संतुल", "न"], ["वि", "ज"], ["विज", "य"], ["मिळ", "व"], ["मिळव", "णे"], ["अध", "िक"], ["म", "ित"], ["्य", "म"], ["ज्ञ", "ा"], ["प", "ू"], ["वा", "."], ["ओ", "ळ"], ["ओळ", "खा"], ["स्व", "ी"], ["स्वी", "कार"], ["का", "म"], ["ई", "ल"], ["स", "त्य"], ["पा", "ण्या"], ["ून", "ही"], ["अस", "ो"], ["आत्म", "विश्वास"], ["आ", "धार"], ["आधार", "ित"], ["कद", "ा"], ["क्ष", "म"], ["क्षम", "ता"], ["मुळे", "च"], ["परि", "ण"], ["परिण", "ा"], ["परिणा", "म"], ["परिणाम", "ां"], ["ते", "ने"], ["ग", "्र"], ["वर्त", "मा"], ["वर्तमा", "नात"], ["सा", "ध"], ["ल", "्यास"], ["इ", "तर"], ["इतर", "ां"], ["थ", "ां"], ["थां", "ब"], ["गो", "ष्ट"], ["गोष्ट", "ी"], ["गोष्टी", "ं"], ["पा", "सून"], ["स", "ां"], ["ध्ये", "या"], ["व", "ले"], ["ल", "हान"], ["सात", "त्य"], ["अ", "भ"], ["अभ", "्यास"], ["व", "ै"], ["वै", "राग"], ["वैराग", "्य"], ["ां", "ती"], ["भवि", "ष्या"], ["भविष्या", "ची"], ["ात", "ून"], ["हा", "च"], ["सर्व", "ात"], ["स्थि", "ती"], ["न", "ी"], ["स्वतः", "वर"], ["आ", "वश्यक"], ["ड", "त"], ["र", "ी"], ["तुम्", "ही"], ["ए", "क"], ["आ", "हात"], ["पा", "या"], ["स", "्त"], ["र", "्या"], ["प्र", "वास"], ["सां", "ग"], ["की", ","], ["ज", "ात"], ["जात", "ो"], ["जातो", ","], ["सु", "ख"], ["ज", "्या"], ["ज्या", "प्रमाणे"], ["त", "से"], ["तसे", "च"], ["आपण", "ही"], ["राहा", "य"], ["राहाय", "ला"], ["शिक", "ले"], ["पा", "हि"], ["पाहि", "जे"], ["पाहिजे", "."], ["पू", "र्ण"], ["म", "ी"], ["ग", "र"], ["गर", "ज"], ["सात", "त्या"], ["न", "क्"], ["नक्", "की"], ["नक्की", "च"], ["जीवना", "चे"], ["समज", "ून"], ["क", "ि"], ["कि", "ं"], ["किं", "वा"], ["ठ", "ा"], ["द", "र"], ["कड", "े"], ["द", "ो"], ["दो", "न"], ["दु:", "खा"], ["घ", "े"], ["न", "को"], ["भ", "र"], ["म", "ह"], ["मह", "त्त"], ["महत्त", "्"], ["ो", "ड"], ["ोड", "ा"], ["अने", "कदा"], ["त्या", "मुळे"], ["वर्त", "मान"], ["वर्तमान", "का"], ["वर्तमानका", "ळ"], ["द", "ि"], ["ण", "ार"], ["क", "ठी"], ["कठी", "ण"], ["क", "ध"], ["कध", "ी"], ["ठे", "वा"], ["लक्ष", "ात"], ["चा", "लत"], ["राहा", "."], ["महत्त्", "वा"], ["ां", "नी"], ["अस", "तात."], ["ला", "ट"], ["स", "मु"], ["समु", "द्र"], ["प्रसंग", "ातून"], ["को", "ण"], ["प्रश्", "ना"], ["स्थि", "र"], ["कर्त", "व"], ["कर्तव", "्या"], ["जीव", "नात"], ["पा", "हा"], ["ले", "ले"], ["बा", "हे"], ["बाहे", "र"], ["आ", "त"], ["श", "ोध"], ["विचार", "ां"], ["ज", "ग"], ["लाग", "े"], ["लागे", "ल."], ["क", "्र"], ["क्र", "ोध"], ["घा", "ई"], ["प", "श्च"], ["पश्च", "ात"], ["पश्चात", "्त"], ["पश्चात्त", "ा"], ["भ", "ूत"], ["आप", "ला"], ["व", "ू"], ["आहे", ","], ["भ", "व"], ["व", "ी"], ["हो", "तो,"], ["ना", "श"], ["स", "्य"], ["ण्या", "त"], ["कर", "ून"], ["के", "व"], ["केव", "ळ"], ["अ", "व"], ["न", "सा"], ["ै", "न"], ["ैन", "ं"], ["ष", "्य"], ["अधिक", "ार"], ["'", "कर्म"], ["भ", "ि"], ["भि", "ज"], ["म्ह", "ट"], ["म्हट", "ले"], ["आहे", ":"], ["।", "'"], ["या", "चा"], ["अर्", "थ"], ["नाही", "त,"], ["राग", "ावर"], ["अप", "यश"], ["ने", "ह"], ["नेह", "मी"], ["कर्", "मा"], ["कर्मा", "चा"], ["स", "ि"], ["सि", "द्ध"], ["सिद्ध", "ांत"], ["अ", "ल"], ["अल", "ि"], ["अलि", "प"], ["अलिप", "्त"], ["भ", "ी"], ["भी", "ती"], ["वा", "वे"], ["शि", "स्त"], ["प्र", "े"], ["नातेसंबंध", "ां"], ["फ", "ळा"], ["फळा", "ची"], ["मित", "्र"], ["अ", "त्य"], ["अत्य", "ंत"], ["म", "नात"], ["त", "ार"], ["्त", "ि"], ["र", "ह"], ["रह", "स्य"], ["काम", "ात"], ["वि", "श्र"], ["विश्र", "ांती"], ["विश्रांती", "त,"], ["ब", "ो"], ["बो", "ल"], ["बोल", "ण्यात"], ["ऐ", "क"], ["ऐक", "ण्या"], ["ऐकण्या", "त,"], ["विचार", "ात"], ["कृती", "त"], ["रा", "ख"], ["राख", "णे"], ["अ", "ति"], ["अति", "रे"], ["अतिरे", "क"], ["नेहमी", "च"], ["ट", "ा"], ["टा", "ळा"], ["टाळा", "वा."], ["म", "ध"], ["मध", "्यम"], ["सर्व", "ो"], ["सर्वो", "त्त"], ["सर्वोत्त", "म"], ["मिळवणे", "."], ["माण", "सा"], ["माणसा", "चा"], ["मो", "ठा"], ["विचार", "श"], ["विचारश", "क्ती"], ["न", "ष्ट"], ["कर", "तो."], ["ये", "ईल"], ["येईल", ","], ["राह", "ण्याचा"], ["स", "मो"], ["समो", "र"], ["समोर", "ची"], ["परि", "स्थिती"], ["प्रत", "िक"], ["प्रतिक", "्र"], ["प्रतिक्र", "ि"], ["प्रतिक्रि", "या"], ["ज्ञा", "न"], ["मु", "क्ती"], ["मुक्ती", "चे"], ["साध", "न"], ["अ", "ज्ञा"], ["अज्ञा", "ना"], ["अज्ञाना", "मुळेच"], ["अ", "ं"], ["अं", "धार"], ["अंधार", "ात"], ["चा", "च"], ["चाच", "प"], ["चाचप", "डत"], ["ओळखा", ","], ["ख", "ऱ"], ["खऱ", "्या"], ["स्", "वर"], ["स्वर", "ू"], ["स्वरू", "पा"], ["स्वरूपा", "ची"], ["जा", "ण"], ["जाण", "ीव"], ["घ्या", "."], ["श", "री"], ["शरी", "र"], ["च", "ै"], ["चै", "त"], ["चैत", "न"], ["चैतन", "्यम"], ["चैतन्यम", "य"], ["आत्", "मा"], ["आहात", ","], ["स्वीकार", "ल्यास"], ["अने", "क"], ["भ", "य"], ["नाही", "शा"], ["हो", "तात."], ["कम", "ळा"], ["कमळा", "चे"], ["पा", "न"], ["पाण्या", "वर"], ["अस", "ूनही"], ["पाण्या", "ने"], ["भिज", "त"], ["सं", "सार"], ["संसार", "ात"], ["राह", "ूनही"], ["मो", "हा"], ["मोहा", "पासून"], ["दु:", "ख"], ["दु:ख", ","], ["अपयश", ","], ["दोन", "्"], ["दोन्", "ही"], ["गोष्टीं", "ना"], ["स", "मान"], ["मान", "णे"], ["म्हणजे", "च"], ["'", "स्थ"], ["'स्थ", "ित"], ["'स्थित", "प्र"], ["'स्थितप्र", "ज्ञ"], ["'स्थितप्रज्ञ", "'"], ["अव", "स्थ"], ["अवस्थ", "ा"], ["हो", "य"], ["होय", "."], ["य", "शा"], ["यशा", "चा"], ["अ", "ह"], ["अह", "ं"], ["अहं", "कार"], ["अहंकार", "ावर"], ["नसा", "वा,"], ["आत्", "मज"], ["आत्मज", "्ञ"], ["आत्मज्ञ", "ा"], ["आत्मज्ञा", "ना"], ["आत्मज्ञाना", "वर"], ["असा", "वा."], ["स्वतः", "च्या"], ["म", "र्या"], ["मर्या", "द"], ["मर्याद", "ां"], ["मर्यादां", "चा"], ["इतरां", "शी"], ["तुल", "ना"], ["थांब", "वा,"], ["व्यक्ती", "चा"], ["वे", "ग"], ["वेग", "ळा"], ["सांग", "तो"], ["कृती", "वर"], ["गा", "ज"], ["गाज", "वू"], ["शक", "तो,"], ["परिणामां", "वर"], ["परिणामां", "च्या"], ["चि", "ं"], ["चिं", "तेने"], ["ग्र", "ा"], ["ग्रा", "स"], ["ग्रास", "ले"], ["कार", "्य"], ["कार्य", "क्षमता"], ["कम", "ी"], ["हो", "ते."], ["त्या", "ऐ"], ["त्याऐ", "व"], ["त्याऐव", "ज"], ["त्याऐवज", "ी,"], ["एका", "ग्र"], ["एकाग्र", "तेने"], ["प्र", "ा"], ["प्रा", "माण"], ["प्रामाण", "िक"], ["प्रामाणिक", "प"], ["प्रामाणिकप", "णे"], ["'कर्म", "योग"], ["'कर्मयोग", "'"], ["का", "ल"], ["काल", "्"], ["काल्", "प"], ["काल्प", "न"], ["काल्पन", "िक"], ["भवि", "ष्यात"], ["हो", "ईल"], ["विचार", "ा"], ["विचारा", "ने"], ["घा", "ब"], ["घाब", "र"], ["घाबर", "त"], ["भवि", "ष्य"], ["अ", "नि"], ["अनि", "श्च"], ["अनिश्च", "ित"], ["बदल", "ण्या"], ["बदलण्या", "ची"], ["ता", "कद"], ["वर्तमानकाळ", "ात"], ["वर्तमानकाळात", "ील"], ["कर्म", "ात"], ["ज", "गा"], ["स", "ोडा"], ["सोडा", "."], ["नातेसंबंधां", "मध्ये"], ["दु:खा", "चे"], ["म", "ू"], ["मू", "ळ"], ["इतरां", "कड"], ["इतरांकड", "ून"], ["थांब", "व"], ["थांबव", "तो"], ["कर्त", "व्य"], ["प", "ार"], ["पा", "ड"], ["पाड", "तो,"], ["सु", "धार"], ["सुधार", "तात."], ["प्रे", "म"], ["आ", "दर"], ["मा", "ग"], ["माग", "ून"], ["मिळ", "त"], ["कम", "वावे"], ["लाग", "तात"], ["द", "्या"], ["द्या", "वे"], ["लाग", "तात."], ["शि", "क्षा"], ["न", "व्"], ["नव्", "हे"], ["नव्हे", ","], ["वि", "शि"], ["विशि", "ष्ट"], ["ध्येया", "कडे"], ["ने", "ण्यासाठी"], ["ला", "वले"], ["लावले", "ली"], ["स", "व"], ["सव", "य"], ["निय", "मित"], ["नियमित", "ता"], ["या", "मुळेच"], ["मो", "ठे"], ["घ", "ड"], ["घड", "तात."], ["पा", "वले"], ["उ", "च"], ["उच", "लत"], ["राहा", ","], ["ती", "च"], ["तुम्", "हा"], ["तुम्हा", "ला"], ["ध्येया", "पर"], ["ध्येयापर", "्य"], ["ध्येयापर्य", "ंत"], ["प", "ो"], ["पो", "हो"], ["पोहो", "च"], ["पोहोच", "व"], ["पोहोचव", "ती"], ["पोहोचवती", "ल."], ["योग", "्य"], ["वार", "ं"], ["वारं", "वार"], ["भर", "क"], ["भरक", "ट"], ["भरकट", "त"], ["त्या", "ला"], ["आण", "ण्यासाठी"], ["'", "अभ्यास"], ["'अभ्यास", "'"], ["'", "वैराग्य"], ["'वैराग्य", "'"], ["य", "ां"], ["यां", "ची"], ["सातत्या", "ने"], ["अ", "ना"], ["अना", "वश्यक"], ["गोष्टीं", "पासून"], ["द", "ू"], ["दू", "र"], ["राह", "णे"], ["राहणे", "."], ["दि", "व"], ["दिव", "सात"], ["साध", "्य"], ["हो", "णार"], ["होणार", "े"], ["ठे", "व"], ["ठेव", "ल्यास"], ["शक", "्य"], ["जा", "वे"], ["शक", "त"], ["सा", "मो"], ["सामो", "रे"], ["नि", "र्ण"], ["निर्ण", "य"], ["गो", "ंध"], ["गोंध", "ळ"], ["श", "ांती"], ["H", "o"], ["Ho", "w"], ["W", "h"], ["तुम", "ची"], ["समज", "ण्या"], ["समजण्या", "सार"], ["समजण्यासार", "ख"], ["समजण्यासारख", "ी"], ["व्यक्ती", "ला"], ["कधी", "ना"], ["लाग", "ते."], ["वे", "ळ"], ["वेळ", "ी,"], ["कर्तव्या", "वर"], ["के", "ं"], ["कें", "द्र"], ["केंद्र", "ित"], ["महत्त्वा", "चे"], ["कर", "ता"], ["करणे", ","], ["ख", "रा"], ["श", "े"], ["शे", "व"], ["शेव", "ट"], ["शेवट", "ी,"], ["कोण", "ता"], ["कोणता", "ही"], ["र", "ात"], ["रात", "्र"], ["रात्र", "ी"], ["रात्री", "त"], ["घ", "डत"], ["या", "साठी"], ["सातत्या", "ची"], ["मार्ग", "ावर"], ["मि", "ळे"], ["मिळे", "ल."], ["प्रश्ना", "ं"], ["प्रश्नां", "ना"], ["सर्व", "प्र"], ["सर्वप्र", "थ"], ["सर्वप्रथ", "म"], ["हो", "णे"], ["भग", "वा"], ["भगवा", "न"], ["श्र", "ी"], ["श्री", "कृ"], ["श्रीकृ", "ष्"], ["श्रीकृष्", "ण"], ["श्रीकृष्ण", "ांनी"], ["अर्", "ज"], ["अर्ज", "ु"], ["अर्जु", "ना"], ["अर्जुना", "ला"], ["सांग", "ित"], ["सांगित", "ले"], ["म", "ना"], ["मना", "ची"], ["स्थिर", "ता"], ["ही", "च"], ["स", "म"], ["सम", "स"], ["समस", "्या"], ["समस्या", "ं"], ["समस्यां", "वर"], ["समस्यांवर", "ील"], ["उ", "पाया"], ["उपाया", "ची"], ["प", "हि"], ["पहि", "ली"], ["पा", "य"], ["पाय", "री"], ["ते", "च"], ["हो", "ऊ"], ["शक", "ते."], ["a", "t"], ["तुम", "चा"], ["सु", "ं"], ["सुं", "दर"], ["हो", "व"], ["होव", "ो"], ["होवो", "."], ["ठे", "वा,"], ["एक", "ट"], ["एकट", "े"], ["आहात", "."], ["सं", "पूर्ण"], ["अस", "्ति"], ["अस्ति", "त्"], ["अस्तित्", "व"], ["पा", "ठी"], ["पाठी", "शी"], ["श्र", "द्ध"], ["श्रद्ध", "े"], ["श्रद्धे", "ने"], ["ध", "ै"], ["धै", "र्या"], ["धैर्या", "ने"], ["प", "ु"], ["पु", "ढ"], ["पुढ", "े"], ["जीवनात", "ील"], ["अ", "न"], ["अन", "ु"], ["अनु", "भव"], ["का", "ही"], ["काही", "तर"], ["काहीतर", "ी"], ["शिक", "व"], ["शिकव", "ण्यासाठी"], ["ये", "तो."], ["पर", "ी"], ["परी", "क्षा"], ["पा", "ह"], ["पाह", "ण्यासाठी"], ["न", "सून"], ["मज", "ब"], ["मजब", "ूत"], ["कर", "ण्यासाठी"], ["द", "ृ"], ["दृ", "ष्ट"], ["दृष्ट", "िक"], ["दृष्टिक", "ो"], ["दृष्टिको", "नात"], ["दृष्टिकोनात", "ून"], ["जीवना", "कडे"], ["पाहा", "."], ["प्रश्", "न"], ["महत्त्वा", "चा"], ["मान", "वी"], ["जीव", "न"], ["दु:खा", "च्या"], ["लाट", "ांनी"], ["भर", "लेले"], ["समुद्र", "ा"], ["समुद्रा", "च्या"], ["लाट", "ां"], ["लाटां", "प्रमाणे"], ["लाटांप्रमाणे", "च"], ["आयुष्यात", "ही"], ["च", "ढ"], ["चढ", "-"], ["चढ-", "उ"], ["चढ-उ", "तार"], ["ये", "त"], ["ख", "ो"], ["खो", "ली"], ["खोली", "त"], ["अस", "तो,"], ["अ", "ंत"], ["अंत", "र्"], ["अंतर्", "मनात"], ["t", "h"], ["i", "n"], ["विचारां", "चे"], ["मन", "न"], ["द", "ैनं"], ["दैनं", "दि"], ["दैनंदि", "न"], ["आ", "च"], ["आच", "र"], ["आचर", "णात"], ["आण", "ण्याचा"], ["क", "ु"], ["कु", "ठे"], ["कुठे", "ही"], ["मिळ", "णार"], ["आत", "च"], ["ति", "ला"], ["शोध", "ण्याचा"], ["i", "s"], ["प्रश्ना", "चे"], ["उ", "त्त"], ["उत्त", "र"], ["शोध", "ण्यासाठी"], ["ड", "ो"], ["डो", "का"], ["डोका", "व"], ["डोकाव", "ून"], ["पाहा", "वे"], ["बा", "ह"], ["बाह", "्य"], ["जग", "तात"], ["जगतात", "ील"], ["तेव्हा", "च"], ["आ", "ंत"], ["आंत", "र"], ["आंतर", "िक"], ["वि", "वे"], ["विवे", "क"], ["ग", "ु"], ["गु", "ण"], ["कोण", "त्या"], ["कोणत्या", "ही"], ["का", "ढ"], ["काढ", "ू"], ["शक", "तात."], ["स्", "म"], ["स्म", "ृ"], ["घे", "ण्यासाठी"], ["थ", "ोडा"], ["बा", "ळ"], ["बाळ", "गा"], ["बाळगा", "वा"], ["घाई", "घाई"], ["घाईघाई", "ने"], ["घे", "त"], ["घेत", "लेले"], ["विचारां", "शि"], ["विचारांशि", "वा"], ["विचारांशिवा", "य"], ["के", "ले"], ["केले", "ली"], ["पश्चात्ता", "पा"], ["पश्चात्तापा", "ला"], ["कारण", "ी"], ["कारणी", "भूत"], ["ठ", "र"], ["ठर", "ते."], ["त्यामुळे", ","], ["द", "ी"], ["दी", "र्"], ["दीर्", "घ"], ["म्हण", "ून"], ["म्हणून", "च"], ["म्हणूनच", ","], ["उ", "ठा"], ["कर्तव्या", "ला"], ["लाग", "ा"], ["लागा", "."], ["भूत", "का"], ["भूतका", "ळा"], ["भूतकाळा", "चा"], ["पश्चात्ता", "प"], ["नको", "."], ["त्या", "चा"], ["स", "दु"], ["सदु", "प"], ["सदुप", "योग"], ["t", "o"], ["मन", "ु"], ["स्वतः", "च"], ["झ", "ा"], ["नि", "र्"], ["a", "n"], ["r", "e"], ["c", "e"], ["th", "e"], ["s", "t"], ["Wh", "at"], ["s", "?"], ["o", "n"], ["स", "म्"], ["सम्", "मो"], ["स्मृ", "ती"], ["स्मृती", "चा"], ["झा", "ल"], ["झाल", "्या"], ["झाल्या", "मुळे"], ["ब", "ु"], ["बु", "द्ध"], ["बुद्ध", "ी"], ["बुद्धी", "चा"], ["मनु", "ष्या"], ["्", "मान"], ["भव", "ति"], ["निर्", "माण"], ["य", "द"], ["यद", "ा"], ["ध", "र्"], ["मा", "ची"], ["हो", "ते"], ["ः", "।'"], ["ग", "्"], ["न", "ैनं"], ["श", "स्त"], ["शस्त", "्र"], ["s", "e"], ["o", "f"], ["d", "o"], ["आहे", "?"], ["उ", "द्"], ["f", "e"], ["क", "शी"], ["क", "से"], ["कर", "ू"], ["d", "e"], ["m", "e"], ["e", "r"], ["f", "a"], ["f", "u"], ["se", "d"], ["o", "u"], ["u", "re"], ["c", "on"], ["p", "l"], ["s", "h"], ["Wh", "y"], ["s", "o"], ["t", "r"], ["म", "ला"], ["p", "o"], ["वे", "?"], ["s", "s?"], ["a", "c"], ["t", "i"], ["'", "क्रोध"], ["'क्रोध", "ा"], ["'क्रोधा", "द्"], ["'क्रोधाद्", "भवति"], ["सम्मो", "ह"], ["सम्मोह", "ः"], ["सम्मो", "हात"], ["सम्मोहात", "्"], ["सम्मोहात्", "स्मृ"], ["सम्मोहात्स्मृ", "ति"], ["सम्मोहात्स्मृति", "वि"], ["सम्मोहात्स्मृतिवि", "भ"], ["सम्मोहात्स्मृतिविभ", "्र"], ["सम्मोहात्स्मृतिविभ्र", "म"], ["सम्मोहात्स्मृतिविभ्रम", "ः।'"], ["क्रोध", "ातून"], ["मो", "ह"], ["मो", "हात"], ["मोहात", "ून"], ["हो", "तो"], ["मनुष्या", "चा"], ["वि", "नाश"], ["हो", "तो."], ["'", "उ"], ["'उ", "द्ध"], ["'उद्ध", "रे"], ["'उद्धरे", "द"], ["'उद्धरेद", "ात"], ["'उद्धरेदात", "्"], ["'उद्धरेदात्", "मनात"], ["'उद्धरेदात्मनात", "्मान"], ["'उद्धरेदात्मनात्मान", "ं"], ["नात", "्मान"], ["नात्मान", "म"], ["नात्मानम", "व"], ["नात्मानमव", "सा"], ["नात्मानमवसा", "द"], ["नात्मानमवसाद", "ये"], ["नात्मानमवसादये", "त्"], ["नात्मानमवसादयेत्", "।'"], ["मनुष्या", "ने"], ["उद्", "धार"], ["करा", "वा,"], ["अध", "ोग"], ["अधोग", "ती"], ["अधोगती", "ला"], ["ने", "ऊ"], ["न", "ये"], ["नये", "."], ["मनु", "ष्य"], ["वी", "?"], ["m", "a"], ["in", "d"], ["'", "यदा"], ["धर्", "म"], ["धर्म", "स्य"], ["ग्", "ला"], ["ग्ला", "निर्"], ["ग्लानिर्", "भवति"], ["भ", "ार"], ["भार", "त"], ["भारत", "।'"], ["धर्", "माची"], ["हान", "ी"], ["अध", "र्"], ["अधर्", "माची"], ["वा", "ढ"], ["होते", ","], ["(", "ई"], ["(ई", "श्"], ["(ईश्", "वर"], ["(ईश्वर", ")"], ["कर", "तो"], ["(", "अव"], ["(अव", "तार"], ["घे", "तो"], ["घेतो", ")"], ["घेतो)", "."], ["'कर्म", "ण"], ["'कर्मण", "्ये"], ["'कर्मण्ये", "वा"], ["'कर्मण्येवा", "ध"], ["'कर्मण्येवाध", "िक"], ["'कर्मण्येवाधिक", "ार"], ["'कर्मण्येवाधिकार", "स्त"], ["'कर्मण्येवाधिकारस्त", "े"], ["फ", "ले"], ["फले", "ष"], ["फलेष", "ु"], ["कदा", "च"], ["कदाच", "न"], ["कदाचन", "।'"], ["तु", "झा"], ["कर", "ण्या"], ["करण्या", "वर"], ["फ", "ळ"], ["फळ", "ां"], ["फळां", "वर"], ["नको", "स"], ["कर", "ण्यात"], ["करण्यात", "ही"], ["तु", "झ"], ["तुझ", "ी"], ["आ", "स"], ["आस", "क्ती"], ["नसा", "वी"], ["नसावी", "."], ["i", "on"], ["a", "r"], ["'", "नैनं"], ["छ", "ि"], ["छि", "न"], ["छिन", "्"], ["छिन्", "द"], ["छिन्द", "न"], ["छिन्दन", "्ति"], ["शस्त्र", "ा"], ["शस्त्रा", "ण"], ["शस्त्राण", "ि"], ["द", "ह"], ["दह", "ति"], ["पा", "व"], ["पाव", "क"], ["पावक", "ः।'"], ["आत्म", "्या"], ["आत्म्या", "ला"], ["शस्त्र", "े"], ["का", "पू"], ["अ", "ग्"], ["अग्", "नी"], ["जा", "ळ"], ["जाळ", "ू"], ["पा", "ण"], ["पाण", "ी"], ["भिज", "वू"], ["वार", "ा"], ["वा", "ळ"], ["वाळ", "वू"], ["fe", "e"], ["fee", "l"], ["l", "o"], ["lo", "st"], ["an", "d"], ["con", "fu"], ["confu", "sed"], ["confused", "."], ["sh", "ou"], ["shou", "l"], ["shoul", "d"], ["do", "?"], ["fa", "ce"], ["m", "an"], ["man", "y"], ["fa", "i"], ["fai", "l"], ["fail", "ure"], ["failure", "s?"], ["a", "m"], ["st", "re"], ["stre", "s"], ["stres", "sed"], ["a", "b"], ["ab", "ou"], ["abou", "t"], ["fu", "t"], ["fut", "ure"], ["future", "."], ["ये", "ते"], ["येते", "?"], ["क", "सा"], ["घ्या", "वा"], ["घ्यावा", "?"], ["con", "tr"], ["contr", "o"], ["contro", "l"], ["an", "g"], ["ang", "er"], ["anger", "?"], ["नियंत्र", "ण"], ["मिळ", "वावे"], ["मिळवावे", "?"], ["E", "x"], ["Ex", "pl"], ["Expl", "a"], ["Expla", "in"], ["i", "m"], ["im", "po"], ["impo", "r"], ["impor", "t"], ["import", "an"], ["importan", "ce"], ["d", "is"], ["dis", "c"], ["disc", "i"], ["disci", "pl"], ["discipl", "in"], ["disciplin", "e"], ["discipline", "."], ["me", "an"], ["mean", "in"], ["meanin", "g"], ["K", "ar"], ["Kar", "ma"], ["Karma", "?"], ["ख", "रे"], ["काय", "?"], ["शिस्त", "ी"], ["शिस्ती", "चे"], ["महत्त्", "व"], ["सां", "गा"], ["सांगा", "."], ["गोंधळ", "ले"], ["गोंधळले", "ला"], ["करा", "वे?"], ["जीवना", "चा"], ["उद्", "द"], ["उद्द", "े"], ["उद्दे", "श"], ["tr", "u"], ["tru", "e"], ["s", "u"], ["su", "c"], ["suc", "ce"], ["succe", "ss?"], ["p", "r"], ["pr", "ac"], ["prac", "ti"], ["practi", "ce"], ["de", "t"], ["det", "ac"], ["detac", "h"], ["detach", "me"], ["detachme", "n"], ["detachmen", "t"], ["detachment", "?"], ["m", "y"], ["m", "ind"], ["re", "st"], ["rest", "l"], ["restl", "e"], ["restle", "ss?"], ["de", "a"], ["dea", "l"], ["w", "i"], ["wi", "th"], ["d", "i"], ["di", "f"], ["dif", "f"], ["diff", "i"], ["diffi", "c"], ["diffic", "u"], ["difficu", "l"], ["difficul", "t"], ["re", "l"], ["rel", "at"], ["relat", "ion"], ["relation", "sh"], ["relationsh", "i"], ["relationshi", "p"], ["relationship", "s?"], ["p", "u"], ["pu", "r"], ["pur", "po"], ["purpo", "se"], ["l", "i"], ["li", "fe"], ["life", "?"], ["प्रे", "र"], ["प्रेर", "ित"], ["राहा", "वे?"], ["भीती", "वर"], ["म", "ात"], ["करू", "?"], ["वा", "ट"], ["वाट", "ते."], ["अलिप्त", "ता"], ["ज", "ो"], ["जो", "पा"], ["जोपा", "सा"], ["जोपासा", "वी?"], ["st", "a"], ["sta", "y"], ["m", "o"], ["mo", "ti"], ["moti", "v"], ["motiv", "at"], ["motivat", "e"], ["motivate", "d"], ["motivated", "?"], ["मा", "झ"], ["माझ", "े"], ["इ", "त"], ["इत", "के"], ["च", "ं"], ["चं", "च"], ["चंच", "ल"], ["मान", "स"], ["मानस", "िक"], ["मिळ", "वा"], ["मिळवा", "वी?"], ["f", "ind"], ["in", "n"], ["inn", "er"], ["p", "e"], ["pe", "a"], ["pea", "ce"], ["peace", "?"], ["ma", "k"], ["mak", "e"], ["r", "i"], ["ri", "g"], ["rig", "h"], ["righ", "t"], ["de", "c"], ["dec", "is"], ["decis", "ion"], ["decision", "?"], ["नातेसंबंधां", "ना"], ["जावे", "?"], ["o", "v"], ["ov", "er"], ["over", "c"], ["overc", "o"], ["overco", "me"], ["fe", "ar"], ["fear", "?"]], "token_to_id": {"\n": 0, " ": 1, "'": 2, "'अभ्यास": 3, "'अभ्यास'": 4, "'उ": 5, "'उद्ध": 6, "'उद्धरे": 7, "'उद्धरेद": 8, "'उद्धरेदात": 9, "'उद्धरेदात्": 10, "'उद्धरेदात्मनात": 11, "'उद्धरेदात्मनात्मान": 12, "'उद्धरेदात्मनात्मानं": 13, "'कर्म": 14, "'कर्मण": 15, "'कर्मण्ये": 16, "'कर्मण्येवा": 17, "'कर्मण्येवाध": 18, "'कर्मण्येवाधिक": 19, "'कर्मण्येवाधिकार": 20, "'कर्मण्येवाधिकारस्त": 21, "'कर्मण्येवाधिकारस्ते": 22, "'कर्मयोग": 23, "'कर्मयोग'": 24, "'क्रोध": 25, "'क्रोधा": 26, "'क्रोधाद्": 27, "'क्रोधाद्भवति": 28, "'नैनं": 29, "'यदा": 30, "'वैराग्य": 31, "'वैराग्य'": 32, "'स्थ": 33, "'स्थित": 34, "'स्थितप्र": 35, "'स्थितप्रज्ञ": 36, "'स्थितप्रज्ञ'": 37, "(": 38, "(अव": 39, "(अवतार": 40, "(ई": 41, "(ईश्": 42, "(ईश्वर": 43, "(ईश्वर)": 44, ")": 45, ",": 46, "-": 47, ".": 48, ":": 49, "?": 50, "E": 51, "Ex": 52, "Expl": 53, "Expla": 54, "Explain": 55, "H": 56, "Ho": 57, "How": 58, "I": 59, "K": 60, "Kar": 61, "Karma": 62, "Karma?": 63, "W": 64, "Wh": 65, "What": 66, "Why": 67, "a": 68, "ab": 69, "abou": 70, "about": 71, "ac": 72, "am": 73, "an": 74, "and": 75, "ang": 76, "anger": 77, "anger?": 78, "ar": 79, "at": 80, "b": 81, "c": 82, "ce": 83, "con": 84, "confu": 85, "confused": 86, "confused.": 87, "contr": 88, "contro": 89, "control": 90, "d": 91, "de": 92, "dea": 93, "deal": 94, "dec": 95, "decis": 96, "decision": 97, "decision?": 98, "det": 99, "detac": 100, "detach": 101, "detachme": 102, "detachmen": 103, "detachment": 104, "detachment?": 105, "di": 106, "dif": 107, "diff": 108, "diffi": 109, "diffic": 110, "difficu": 111, "difficul": 112, "difficult": 113, "dis": 114, "disc": 115, "disci": 116, "discipl": 117, "disciplin": 118, "discipline": 119, "discipline.": 120, "do": 121, "do?": 122, "e": 123, "er": 124, "f": 125, "fa": 126, "face": 127, "fai": 128, "fail": 129, "failure": 130, "failures?": 131, "fe": 132, "fear": 133, "fear?": 134, "fee": 135, "feel": 136, "find": 137, "fu": 138, "fut": 139, "future": 140, "future.": 141, "g": 142, "h": 143, "i": 144, "im": 145, "impo": 146, "impor": 147, "import": 148, "importan": 149, "importance": 150, "in": 151, "ind": 152, "inn": 153, "inner": 154, "ion": 155, "is": 156, "k": 157, "l": 158, "li": 159, "life": 160, "life?": 161, "lo": 162, "lost": 163, "m": 164, "ma": 165, "mak": 166, "make": 167, "man": 168, "many": 169, "me": 170, "mean": 171, "meanin": 172, "meaning": 173, "mind": 174, "mo": 175, "moti": 176, "motiv": 177, "motivat": 178, "motivate": 179, "motivated": 180, "motivated?": 181, "my": 182, "n": 183, "o": 184, "of": 185, "on": 186, "ou": 187, "ov": 188, "over": 189, "overc": 190, "overco": 191, "overcome": 192, "p": 193, "pe": 194, "pea": 195, "peace": 196, "peace?": 197, "pl": 198, "po": 199, "pr": 200, "prac": 201, "practi": 202, "practice": 203, "pu": 204, "pur": 205, "purpo": 206, "purpose": 207, "r": 208, "re": 209, "rel": 210, "relat": 211, "relation": 212, "relationsh": 213, "relationshi": 214, "relationship": 215, "relationships?": 216, "rest": 217, "restl": 218, "restle": 219, "restless?": 220, "ri": 221, "rig": 222, "righ": 223, "right": 224, "s": 225, "s?": 226, "se": 227, "sed": 228, "sh": 229, "shou": 230, "shoul": 231, "should": 232, "so": 233, "ss?": 234, "st": 235, "sta": 236, "stay": 237, "stre": 238, "stres": 239, "stressed": 240, "su": 241, "suc": 242, "succe": 243, "success?": 244, "t": 245, "th": 246, "the": 247, "ti": 248, "to": 249, "tr": 250, "tru": 251, "true": 252, "u": 253, "ure": 254, "v": 255, "w": 256, "wi": 257, "with": 258, "x": 259, "y": 260, "ं": 261, "ंत": 262, "ंध": 263, "ः": 264, "ः।'": 265, "अ": 266, "अं": 267, "अंत": 268, "अंतर्": 269, "अंतर्मनात": 270, "अंधार": 271, "अंधारात": 272, "अग्": 273, "अग्नी": 274, "अज्ञा": 275, "अज्ञाना": 276, "अज्ञानामुळेच": 277, "अति": 278, "अतिरे": 279, "अतिरेक": 280, "अत्य": 281, "अत्यंत": 282, "अध": 283, "अधर्": 284, "अधर्माची": 285, "अधिक": 286, "अधिकार": 287, "अधोग": 288, "अधोगती": 289, "अधोगतीला": 290, "अन": 291, "अना": 292, "अनावश्यक": 293, "अनि": 294, "अनिश्च": 295, "अनिश्चित": 296, "अनु": 297, "अनुभव": 298, "अने": 299, "अनेक": 300, "अनेकदा": 301, "अप": 302, "अपयश": 303, "अपयश,": 304, "अपे": 305, "अपेक्षा": 306, "अभ": 307, "अभ्यास": 308, "अर्": 309, "अर्ज": 310, "अर्जु": 311, "अर्जुना": 312, "अर्जुनाला": 313, "अर्थ": 314, "अल": 315, "अलि": 316, "अलिप": 317, "अलिप्त": 318, "अलिप्तता": 319, "अव": 320, "अवस्थ": 321, "अवस्था": 322, "अशा": 323, "अस": 324, "असतात.": 325, "असते.": 326, "असतो,": 327, "असतो.": 328, "असा": 329, "असावा.": 330, "असूनही": 331, "असो": 332, "अस्ति": 333, "अस्तित्": 334, "अस्तित्व": 335, "अह": 336, "अहं": 337, "अहंकार": 338, "अहंकारावर": 339, "आ": 340, "आंत": 341, "आंतर": 342, "आंतरिक": 343, "आच": 344, "आचर": 345, "आचरणात": 346, "आण": 347, "आणण्याचा": 348, "आणण्यासाठी": 349, "आणि": 350, "आत": 351, "आतच": 352, "आत्": 353, "आत्म": 354, "आत्मज": 355, "आत्मज्ञ": 356, "आत्मज्ञा": 357, "आत्मज्ञाना": 358, "आत्मज्ञानावर": 359, "आत्मविश्वास": 360, "आत्मा": 361, "आत्म्या": 362, "आत्म्याला": 363, "आदर": 364, "आधार": 365, "आधारित": 366, "आप": 367, "आपण": 368, "आपणही": 369, "आपल": 370, "आपला": 371, "आपली": 372, "आपले": 373, "आपल्या": 374, "आपल्याला": 375, "आय": 376, "आयु": 377, "आयुष्यात": 378, "आयुष्यातही": 379, "आवश्यक": 380, "आस": 381, "आसक्ती": 382, "आहात": 383, "आहात,": 384, "आहात.": 385, "आहे": 386, "आहे,": 387, "आहे.": 388, "आहे:": 389, "आहे?": 390, "इ": 391, "इत": 392, "इतके": 393, "इतर": 394, "इतरां": 395, "इतरांकड": 396, "इतरांकडून": 397, "इतरांशी": 398, "ई": 399, "ईल": 400, "उ": 401, "उच": 402, "उचलत": 403, "उठा": 404, "उत्त": 405, "उत्तर": 406, "उद्": 407, "उद्द": 408, "उद्दे": 409, "उद्देश": 410, "उद्धार": 411, "उपाया": 412, "उपायाची": 413, "ऊ": 414, "ए": 415, "एक": 416, "एकट": 417, "एकटे": 418, "एका": 419, "एकाग्र": 420, "एकाग्रतेने": 421, "ऐ": 422, "ऐक": 423, "ऐकण्या": 424, "ऐकण्यात,": 425, "ओ": 426, "ओळ": 427, "ओळखा": 428, "ओळखा,": 429, "क": 430, "कठी": 431, "कठीण": 432, "कड": 433, "कडे": 434, "कद": 435, "कदा": 436, "कदाच": 437, "कदाचन": 438, "कदाचन।'": 439, "कध": 440, "कधी": 441, "कधीना": 442, "कम": 443, "कमळा": 444, "कमळाचे": 445, "कमवावे": 446, "कमी": 447, "कर": 448, "करणे": 449, "करणे,": 450, "करण्या": 451, "करण्यात": 452, "करण्यातही": 453, "करण्यावर": 454, "करण्यासाठी": 455, "करता": 456, "करतो": 457, "करतो.": 458, "करा": 459, "करा.": 460, "करावा,": 461, "करावे?": 462, "करू": 463, "करू?": 464, "करून": 465, "कर्": 466, "कर्त": 467, "कर्तव": 468, "कर्तव्य": 469, "कर्तव्या": 470, "कर्तव्याला": 471, "कर्तव्यावर": 472, "कर्म": 473, "कर्मा": 474, "कर्माचा": 475, "कर्मात": 476, "कशी": 477, "कसा": 478, "कसे": 479, "का": 480, "काढ": 481, "काढू": 482, "कापू": 483, "काम": 484, "कामात": 485, "काय": 486, "काय?": 487, "कार": 488, "कारण": 489, "कारणी": 490, "कारणीभूत": 491, "कार्य": 492, "कार्यक्षमता": 493, "काल": 494, "काल्": 495, "काल्प": 496, "काल्पन": 497, "काल्पनिक": 498, "काही": 499, "काहीतर": 500, "काहीतरी": 501, "कि": 502, "किं": 503, "किंवा": 504, "की": 505, "की,": 506, "कु": 507, "कुठे": 508, "कुठेही": 509, "कृ": 510, "कृती": 511, "कृतीत": 512, "कृतीवर": 513, "के": 514, "कें": 515, "केंद्र": 516, "केंद्रित": 517, "केले": 518, "केलेली": 519, "केव": 520, "केवळ": 521, "को": 522, "कोण": 523, "कोणता": 524, "कोणताही": 525, "कोणत्या": 526, "कोणत्याही": 527, "क्": 528, "क्त": 529, "क्ती": 530, "क्र": 531, "क्रोध": 532, "क्रोधातून": 533, "क्ष": 534, "क्षम": 535, "क्षमता": 536, "क्षा": 537, "ख": 538, "खरा": 539, "खरे": 540, "खऱ": 541, "खऱ्या": 542, "खा": 543, "खो": 544, "खोली": 545, "खोलीत": 546, "ग": 547, "गर": 548, "गरज": 549, "गा": 550, "गाज": 551, "गाजवू": 552, "गु": 553, "गुण": 554, "गो": 555, "गोंध": 556, "गोंधळ": 557, "गोंधळले": 558, "गोंधळलेला": 559, "गोष्ट": 560, "गोष्टी": 561, "गोष्टीं": 562, "गोष्टींना": 563, "गोष्टींपासून": 564, "ग्": 565, "ग्र": 566, "ग्रा": 567, "ग्रास": 568, "ग्रासले": 569, "ग्ला": 570, "ग्लानिर्": 571, "ग्लानिर्भवति": 572, "घ": 573, "घड": 574, "घडत": 575, "घडतात.": 576, "घा": 577, "घाई": 578, "घाईघाई": 579, "घाईघाईने": 580, "घाब": 581, "घाबर": 582, "घाबरत": 583, "घे": 584, "घेण्यासाठी": 585, "घेत": 586, "घेतलेले": 587, "घेतो": 588, "घेतो)": 589, "घेतो).": 590, "घ्या": 591, "घ्या.": 592, "घ्यावा": 593, "घ्यावा?": 594, "च": 595, "चं": 596, "चंच": 597, "चंचल": 598, "चढ": 599, "चढ-": 600, "चढ-उ": 601, "चढ-उतार": 602, "चा": 603, "चाच": 604, "चाचप": 605, "चाचपडत": 606, "चालत": 607, "चि": 608, "चिं": 609, "चिंत": 610, "चिंता": 611, "चिंतेने": 612, "ची": 613, "चे": 614, "चै": 615, "चैत": 616, "चैतन": 617, "चैतन्यम": 618, "चैतन्यमय": 619, "च्या": 620, "छ": 621, "छि": 622, "छिन": 623, "छिन्": 624, "छिन्द": 625, "छिन्दन": 626, "छिन्दन्ति": 627, "ज": 628, "जग": 629, "जगतात": 630, "जगतातील": 631, "जगा": 632, "जा": 633, "जाण": 634, "जाणीव": 635, "जात": 636, "जातो": 637, "जातो,": 638, "जाळ": 639, "जाळू": 640, "जावे": 641, "जावे?": 642, "जीव": 643, "जीवन": 644, "जीवना": 645, "जीवनाकडे": 646, "जीवनाचा": 647, "जीवनाचे": 648, "जीवनात": 649, "जीवनातील": 650, "जे": 651, "जेव्हा": 652, "जो": 653, "जोपा": 654, "जोपासा": 655, "जोपासावी?": 656, "ज्ञ": 657, "ज्ञा": 658, "ज्ञान": 659, "ज्या": 660, "ज्याप्रमाणे": 661, "झ": 662, "झा": 663, "झाल": 664, "झाल्या": 665, "झाल्यामुळे": 666, "ञ": 667, "ट": 668, "टा": 669, "टाळा": 670, "टाळावा.": 671, "ठ": 672, "ठर": 673, "ठरते.": 674, "ठा": 675, "ठी": 676, "ठे": 677, "ठेव": 678, "ठेवल्यास": 679, "ठेवा": 680, "ठेवा,": 681, "ड": 682, "डत": 683, "डो": 684, "डोका": 685, "डोकाव": 686, "डोकावून": 687, "ढ": 688, "ण": 689, "णात": 690, "णार": 691, "णे": 692, "ण्या": 693, "ण्याचा": 694, "ण्यात": 695, "ण्यासाठी": 696, "त": 697, "त,": 698, "तर": 699, "तसे": 700, "तसेच": 701, "ता": 702, "ताकद": 703, "तात": 704, "तात.": 705, "तार": 706, "ति": 707, "तिला": 708, "ती": 709, "तीच": 710, "तु": 711, "तुझ": 712, "तुझा": 713, "तुझी": 714, "तुम": 715, "तुमचा": 716, "तुमची": 717, "तुमचे": 718, "तुमच्या": 719, "तुम्": 720, "तुम्हा": 721, "तुम्हाला": 722, "तुम्ही": 723, "तुल": 724, "तुलना": 725, "ते": 726, "ते.": 727, "तेच": 728, "तेने": 729, "तेव्हा": 730, "तेव्हाच": 731, "तो": 732, "तो,": 733, "तो.": 734, "त्": 735, "त्त": 736, "त्य": 737, "त्या": 738, "त्याऐ": 739, "त्याऐव": 740, "त्याऐवज": 741, "त्याऐवजी,": 742, "त्याचा": 743, "त्याच्या": 744, "त्यामुळे": 745, "त्यामुळे,": 746, "त्याला": 747, "थ": 748, "थां": 749, "थांब": 750, "थांबव": 751, "थांबवतो": 752, "थांबवा,": 753, "थोडा": 754, "द": 755, "दर": 756, "दह": 757, "दहति": 758, "दि": 759, "दिव": 760, "दिवसात": 761, "दी": 762, "दीर्": 763, "दीर्घ": 764, "दु": 765, "दु:": 766, "दु:ख": 767, "दु:ख,": 768, "दु:खा": 769, "दु:खाचे": 770, "दु:खाच्या": 771, "दू": 772, "दूर": 773, "दृ": 774, "दृष्ट": 775, "दृष्टिक": 776, "दृष्टिको": 777, "दृष्टिकोनात": 778, "दृष्टिकोनातून": 779, "दैनं": 780, "दैनंदि": 781, "दैनंदिन": 782, "दो": 783, "दोन": 784, "दोन्": 785, "दोन्ही": 786, "द्": 787, "द्ध": 788, "द्या": 789, "द्यावे": 790, "द्र": 791, "ध": 792, "धर्": 793, "धर्म": 794, "धर्मस्य": 795, "धर्माची": 796, "धार": 797, "धै": 798, "धैर्या": 799, "धैर्याने": 800, "ध्ये": 801, "ध्येया": 802, "ध्येयाकडे": 803, "ध्येयापर": 804, "ध्येयापर्य": 805, "ध्येयापर्यंत": 806, "न": 807, "नको": 808, "नको.": 809, "नकोस": 810, "नक्": 811, "नक्की": 812, "नक्कीच": 813, "नये": 814, "नये.": 815, "नव्": 816, "नव्हे": 817, "नव्हे,": 818, "नष्ट": 819, "नसा": 820, "नसावा,": 821, "नसावी": 822, "नसावी.": 823, "नसून": 824, "ना": 825, "नात": 826, "नाते": 827, "नातेसं": 828, "नातेसंब": 829, "नातेसंबंध": 830, "नातेसंबंधां": 831, "नातेसंबंधांना": 832, "नातेसंबंधांमध्ये": 833, "नात्मान": 834, "नात्मानम": 835, "नात्मानमव": 836, "नात्मानमवसा": 837, "नात्मानमवसाद": 838, "नात्मानमवसादये": 839, "नात्मानमवसादयेत्": 840, "नात्मानमवसादयेत्।'": 841, "नाश": 842, "नाही": 843, "नाही,": 844, "नाही.": 845, "नाहीत,": 846, "नाहीशा": 847, "नि": 848, "निय": 849, "नियंत": 850, "नियंत्र": 851, "नियंत्रण": 852, "नियंत्रणात": 853, "नियमित": 854, "नियमितता": 855, "निर्": 856, "निर्ण": 857, "निर्णय": 858, "निर्माण": 859, "नी": 860, "ने": 861, "नेऊ": 862, "नेण्यासाठी": 863, "नेह": 864, "नेहमी": 865, "नेहमीच": 866, "नैनं": 867, "प": 868, "पण": 869, "पर": 870, "परि": 871, "परिण": 872, "परिणा": 873, "परिणाम": 874, "परिणामां": 875, "परिणामांच्या": 876, "परिणामांवर": 877, "परिस्थिती": 878, "परी": 879, "परीक्षा": 880, "पश्च": 881, "पश्चात": 882, "पश्चात्त": 883, "पश्चात्ता": 884, "पश्चात्ताप": 885, "पश्चात्तापा": 886, "पश्चात्तापाला": 887, "पहि": 888, "पहिली": 889, "पा": 890, "पाठी": 891, "पाठीशी": 892, "पाड": 893, "पाडतो,": 894, "पाण": 895, "पाणी": 896, "पाण्या": 897, "पाण्याने": 898, "पाण्यावर": 899, "पान": 900, "पाय": 901, "पायरी": 902, "पाया": 903, "पार": 904, "पाव": 905, "पावक": 906, "पावकः।'": 907, "पावले": 908, "पासून": 909, "पाह": 910, "पाहण्यासाठी": 911, "पाहा": 912, "पाहा.": 913, "पाहावे": 914, "पाहि": 915, "पाहिजे": 916, "पाहिजे.": 917, "पु": 918, "पुढ": 919, "पुढे": 920, "पू": 921, "पूर्ण": 922, "पो": 923, "पोहो": 924, "पोहोच": 925, "पोहोचव": 926, "पोहोचवती": 927, "पोहोचवतील.": 928, "प्र": 929, "प्रत": 930, "प्रतिक": 931, "प्रतिक्र": 932, "प्रतिक्रि": 933, "प्रतिक्रिया": 934, "प्रत्ये": 935, "प्रत्येक": 936, "प्रमा": 937, "प्रमाणे": 938, "प्रय": 939, "प्रयत्": 940, "प्रयत्न": 941, "प्रवास": 942, "प्रश्": 943, "प्रश्न": 944, "प्रश्ना": 945, "प्रश्नां": 946, "प्रश्नांना": 947, "प्रश्नाचे": 948, "प्रसं": 949, "प्रसंग": 950, "प्रसंगातून": 951, "प्रा": 952, "प्रामाण": 953, "प्रामाणिक": 954, "प्रामाणिकप": 955, "प्रामाणिकपणे": 956, "प्रे": 957, "प्रेम": 958, "प्रेर": 959, "प्रेरित": 960, "फ": 961, "फक्त": 962, "फले": 963, "फलेष": 964, "फलेषु": 965, "फळ": 966, "फळा": 967, "फळां": 968, "फळांवर": 969, "फळाची": 970, "ब": 971, "बद": 972, "बदल": 973, "बदलण्या": 974, "बदलण्याची": 975, "बा": 976, "बाळ": 977, "बाळगा": 978, "बाळगावा": 979, "बाह": 980, "बाहे": 981, "बाहेर": 982, "बाह्य": 983, "बु": 984, "बुद्ध": 985, "बुद्धी": 986, "बुद्धीचा": 987, "बो": 988, "बोल": 989, "बोलण्यात": 990, "भ": 991, "भग": 992, "भगव": 993, "भगवद": 994, "भगवद्ग": 995, "भगवद्गी": 996, "भगवद्गीते": 997, "भगवद्गीतेमध्ये": 998, "भगवा": 999, "भगवान": 1000, "भय": 1001, "भर": 1002, "भरक": 1003, "भरकट": 1004, "भरकटत": 1005, "भरलेले": 1006, "भव": 1007, "भवति": 1008, "भवि": 1009, "भविष्य": 1010, "भविष्या": 1011, "भविष्याची": 1012, "भविष्यात": 1013, "भार": 1014, "भारत": 1015, "भारत।'": 1016, "भि": 1017, "भिज": 1018, "भिजत": 1019, "भिजवू": 1020, "भी": 1021, "भीती": 1022, "भीतीवर": 1023, "भूत": 1024, "भूतका": 1025, "भूतकाळा": 1026, "भूतकाळाचा": 1027, "म": 1028, "मज": 1029, "मजब": 1030, "मजबूत": 1031, "मध": 1032, "मध्यम": 1033, "मध्ये": 1034, "मन": 1035, "मनन": 1036, "मना": 1037, "मनाची": 1038, "मनात": 1039, "मनु": 1040, "मनुष्य": 1041, "मनुष्या": 1042, "मनुष्याचा": 1043, "मनुष्याने": 1044, "मर्या": 1045, "मर्याद": 1046, "मर्यादां": 1047, "मर्यादांचा": 1048, "मला": 1049, "मह": 1050, "महत्त": 1051, "महत्त्": 1052, "महत्त्व": 1053, "महत्त्वा": 1054, "महत्त्वाचा": 1055, "महत्त्वाचे": 1056, "मा": 1057, "माग": 1058, "मागून": 1059, "माची": 1060, "माझ": 1061, "माझे": 1062, "माण": 1063, "माणसा": 1064, "माणसाचा": 1065, "मात": 1066, "मान": 1067, "मानणे": 1068, "मानवी": 1069, "मानस": 1070, "मानसिक": 1071, "मार": 1072, "मार्ग": 1073, "मार्गावर": 1074, "मि": 1075, "मित": 1076, "मित्र": 1077, "मिळ": 1078, "मिळणार": 1079, "मिळत": 1080, "मिळव": 1081, "मिळवणे": 1082, "मिळवणे.": 1083, "मिळवा": 1084, "मिळवावी?": 1085, "मिळवावे": 1086, "मिळवावे?": 1087, "मिळे": 1088, "मिळेल.": 1089, "मी": 1090, "मु": 1091, "मुक्ती": 1092, "मुक्तीचे": 1093, "मुळे": 1094, "मुळेच": 1095, "मू": 1096, "मूळ": 1097, "मो": 1098, "मोठा": 1099, "मोठे": 1100, "मोह": 1101, "मोहा": 1102, "मोहात": 1103, "मोहातून": 1104, "मोहापासून": 1105, "म्": 1106, "म्ह": 1107, "म्हट": 1108, "म्हटले": 1109, "म्हण": 1110, "म्हणजे": 1111, "म्हणजेच": 1112, "म्हणून": 1113, "म्हणूनच": 1114, "म्हणूनच,": 1115, "य": 1116, "यद": 1117, "यदा": 1118, "यश": 1119, "यशा": 1120, "यशाचा": 1121, "या": 1122, "यां": 1123, "यांची": 1124, "याचा": 1125, "यामुळेच": 1126, "यासाठी": 1127, "ये": 1128, "येईल": 1129, "येईल,": 1130, "येत": 1131, "येते": 1132, "येते?": 1133, "येतो.": 1134, "योग": 1135, "योग्य": 1136, "र": 1137, "रह": 1138, "रहस्य": 1139, "रा": 1140, "राख": 1141, "राखणे": 1142, "राग": 1143, "रागावर": 1144, "रात": 1145, "रात्र": 1146, "रात्री": 1147, "रात्रीत": 1148, "राह": 1149, "राहणे": 1150, "राहणे.": 1151, "राहण्याचा": 1152, "राहा": 1153, "राहा,": 1154, "राहा.": 1155, "राहाय": 1156, "राहायला": 1157, "राहावे?": 1158, "राहूनही": 1159, "री": 1160, "रे": 1161, "र्": 1162, "र्ण": 1163, "र्या": 1164, "ऱ": 1165, "ल": 1166, "ल.": 1167, "लक्ष": 1168, "लक्षात": 1169, "लत": 1170, "लहान": 1171, "ला": 1172, "लाग": 1173, "लागतात": 1174, "लागतात.": 1175, "लागते.": 1176, "लागा": 1177, "लागा.": 1178, "लागे": 1179, "लागेल.": 1180, "लाट": 1181, "लाटां": 1182, "लाटांनी": 1183, "लाटांप्रमाणे": 1184, "लाटांप्रमाणेच": 1185, "लावले": 1186, "लावलेली": 1187, "ली": 1188, "ले": 1189, "लेले": 1190, "ल्यास": 1191, "ळ": 1192, "ळा": 1193, "ळे": 1194, "व": 1195, "वर": 1196, "वर्त": 1197, "वर्तमा": 1198, "वर्तमान": 1199, "वर्तमानका": 1200, "वर्तमानकाळ": 1201, "वर्तमानकाळात": 1202, "वर्तमानकाळातील": 1203, "वर्तमानात": 1204, "वले": 1205, "वश": 1206, "वश्य": 1207, "वश्यक": 1208, "वा": 1209, "वा,": 1210, "वा.": 1211, "वाट": 1212, "वाटते.": 1213, "वाढ": 1214, "वार": 1215, "वारं": 1216, "वारंवार": 1217, "वारा": 1218, "वाळ": 1219, "वाळवू": 1220, "वावे": 1221, "वास": 1222, "वि": 1223, "विच": 1224, "विचार": 1225, "विचारश": 1226, "विचारशक्ती": 1227, "विचारा": 1228, "विचारां": 1229, "विचारांचे": 1230, "विचारांशि": 1231, "विचारांशिवा": 1232, "विचारांशिवाय": 1233, "विचारात": 1234, "विचाराने": 1235, "विज": 1236, "विजय": 1237, "विनाश": 1238, "विवे": 1239, "विवेक": 1240, "विशि": 1241, "विशिष्ट": 1242, "विश्र": 1243, "विश्रांती": 1244, "विश्रांतीत,": 1245, "विश्वास": 1246, "वी": 1247, "वी?": 1248, "वू": 1249, "वे": 1250, "वे?": 1251, "वेग": 1252, "वेगळा": 1253, "वेळ": 1254, "वेळी,": 1255, "वै": 1256, "वैराग": 1257, "वैराग्य": 1258, "व्": 1259, "व्य": 1260, "व्यक्ती": 1261, "व्यक्तीचा": 1262, "व्यक्तीला": 1263, "व्हा": 1264, "श": 1265, "शक": 1266, "शकत": 1267, "शकतात.": 1268, "शकते.": 1269, "शकतो,": 1270, "शक्य": 1271, "शत": 1272, "शत्र": 1273, "शत्रू": 1274, "शरी": 1275, "शरीर": 1276, "शस्त": 1277, "शस्त्र": 1278, "शस्त्रा": 1279, "शस्त्राण": 1280, "शस्त्राणि": 1281, "शस्त्रे": 1282, "शा": 1283, "शांत": 1284, "शांती": 1285, "शि": 1286, "शिक": 1287, "शिकले": 1288, "शिकव": 1289, "शिकवण्यासाठी": 1290, "शिक्षा": 1291, "शिस्त": 1292, "शिस्ती": 1293, "शिस्तीचे": 1294, "शी": 1295, "शे": 1296, "शेव": 1297, "शेवट": 1298, "शेवटी,": 1299, "शोध": 1300, "शोधण्याचा": 1301, "शोधण्यासाठी": 1302, "श्": 1303, "श्च": 1304, "श्र": 1305, "श्रद्ध": 1306, "श्रद्धे": 1307, "श्रद्धेने": 1308, "श्री": 1309, "श्रीकृ": 1310, "श्रीकृष्": 1311, "श्रीकृष्ण": 1312, "श्रीकृष्णांनी": 1313, "श्वास": 1314, "ष": 1315, "ष्": 1316, "ष्ट": 1317, "ष्य": 1318, "ष्या": 1319, "ष्यात": 1320, "स": 1321, "सं": 1322, "संतुल": 1323, "संतुलन": 1324, "संपूर्ण": 1325, "संय": 1326, "संयम": 1327, "संसार": 1328, "संसारात": 1329, "सत्य": 1330, "सदु": 1331, "सदुप": 1332, "सदुपयोग": 1333, "सम": 1334, "समज": 1335, "समजण्या": 1336, "समजण्यासार": 1337, "समजण्यासारख": 1338, "समजण्यासारखी": 1339, "समजून": 1340, "समस": 1341, "समस्या": 1342, "समस्यां": 1343, "समस्यांवर": 1344, "समस्यांवरील": 1345, "समान": 1346, "समु": 1347, "समुद्र": 1348, "समुद्रा": 1349, "समुद्राच्या": 1350, "समो": 1351, "समोर": 1352, "समोरची": 1353, "सम्": 1354, "सम्मो": 1355, "सम्मोह": 1356, "सम्मोहः": 1357, "सम्मोहात": 1358, "सम्मोहात्": 1359, "सम्मोहात्स्मृ": 1360, "सम्मोहात्स्मृति": 1361, "सम्मोहात्स्मृतिवि": 1362, "सम्मोहात्स्मृतिविभ": 1363, "सम्मोहात्स्मृतिविभ्र": 1364, "सम्मोहात्स्मृतिविभ्रम": 1365, "सम्मोहात्स्मृतिविभ्रमः।'": 1366, "सर्": 1367, "सर्व": 1368, "सर्वप्र": 1369, "सर्वप्रथ": 1370, "सर्वप्रथम": 1371, "सर्वात": 1372, "सर्वो": 1373, "सर्वोत्त": 1374, "सर्वोत्तम": 1375, "सव": 1376, "सवय": 1377, "सा": 1378, "सां": 1379, "सांग": 1380, "सांगतो": 1381, "सांगा": 1382, "सांगा.": 1383, "सांगित": 1384, "सांगितले": 1385, "साठी": 1386, "सात": 1387, "सातत्य": 1388, "सातत्या": 1389, "सातत्याची": 1390, "सातत्याने": 1391, "साध": 1392, "साधन": 1393, "साध्य": 1394, "सामो": 1395, "सामोरे": 1396, "सार": 1397, "सि": 1398, "सिद्ध": 1399, "सिद्धांत": 1400, "सु": 1401, "सुं": 1402, "सुंदर": 1403, "सुख": 1404, "सुधार": 1405, "सुधारतात.": 1406, "सून": 1407, "से": 1408, "सोडा": 1409, "सोडा.": 1410, "स्": 1411, "स्त": 1412, "स्थ": 1413, "स्थि": 1414, "स्थिती": 1415, "स्थिर": 1416, "स्थिरता": 1417, "स्म": 1418, "स्मृ": 1419, "स्मृती": 1420, "स्मृतीचा": 1421, "स्य": 1422, "स्व": 1423, "स्वत": 1424, "स्वतः": 1425, "स्वतःच": 1426, "स्वतःच्या": 1427, "स्वतःला": 1428, "स्वतःवर": 1429, "स्वर": 1430, "स्वरू": 1431, "स्वरूपा": 1432, "स्वरूपाची": 1433, "स्वी": 1434, "स्वीकार": 1435, "स्वीकारल्यास": 1436, "ह": 1437, "हा": 1438, "हाच": 1439, "हात": 1440, "हान": 1441, "हानी": 1442, "हि": 1443, "ही": 1444, "हीच": 1445, "हे": 1446, "हेच": 1447, "हो": 1448, "होईल": 1449, "होऊ": 1450, "होणार": 1451, "होणारे": 1452, "होणे": 1453, "होतात.": 1454, "होते": 1455, "होते,": 1456, "होते.": 1457, "होतो": 1458, "होतो,": 1459, "होतो.": 1460, "होय": 1461, "होय.": 1462, "होव": 1463, "होवो": 1464, "होवो.": 1465, "ा": 1466, "ां": 1467, "ांत": 1468, "ांती": 1469, "ांनी": 1470, "ात": 1471, "ातून": 1472, "ार": 1473, "ावर": 1474, "ि": 1475, "िक": 1476, "ित": 1477, "ी": 1478, "ी,": 1479, "ील": 1480, "ीव": 1481, "ु": 1482, "ू": 1483, "ूत": 1484, "ून": 1485, "ूनही": 1486, "ृ": 1487, "े": 1488, "ै": 1489, "ैन": 1490, "ैनं": 1491, "ो": 1492, "ोग": 1493, "ोड": 1494, "ोडा": 1495, "ोध": 1496, "्": 1497, "्ग": 1498, "्ञ": 1499, "्त": 1500, "्ति": 1501, "्मान": 1502, "्य": 1503, "्यम": 1504, "्या": 1505, "्यास": 1506, "्ये": 1507, "्र": 1508, "।": 1509, "।'": 1510}, "id_to_token": {"0": "\n", "1": " ", "2": "'", "3": "'अभ्यास", "4": "'अभ्यास'", "5": "'उ", "6": "'उद्ध", "7": "'उद्धरे", "8": "'उद्धरेद", "9": "'उद्धरेदात", "10": "'उद्धरेदात्", "11": "'उद्धरेदात्मनात", "12": "'उद्धरेदात्मनात्मान", "13": "'उद्धरेदात्मनात्मानं", "14": "'कर्म", "15": "'कर्मण", "16": "'कर्मण्ये", "17": "'कर्मण्येवा", "18": "'कर्मण्येवाध", "19": "'कर्मण्येवाधिक", "20": "'कर्मण्येवाधिकार", "21": "'कर्मण्येवाधिकारस्त", "22": "'कर्मण्येवाधिकारस्ते", "23": "'कर्मयोग", "24": "'कर्मयोग'", "25": "'क्रोध", "26": "'क्रोधा", "27": "'क्रोधाद्", "28": "'क्रोधाद्भवति", "29": "'नैनं", "30": "'यदा", "31": "'वैराग्य", "32": "'वैराग्य'", "33": "'स्थ", "34": "'स्थित", "35": "'स्थितप्र", "36": "'स्थितप्रज्ञ", "37": "'स्थितप्रज्ञ'", "38": "(", "39": "(अव", "40": "(अवतार", "41": "(ई", "42": "(ईश्", "43": "(ईश्वर", "44": "(ईश्वर)", "45": ")", "46": ",", "47": "-", "48": ".", "49": ":", "50": "?", "51": "E", "52": "Ex", "53": "Expl", "54": "Expla", "55": "Explain", "56": "H", "57": "Ho", "58": "How", "59": "I", "60": "K", "61": "Kar", "62": "Karma", "63": "Karma?", "64": "W", "65": "Wh", "66": "What", "67": "Why", "68": "a", "69": "ab", "70": "abou", "71": "about", "72": "ac", "73": "am", "74": "an", "75": "and", "76": "ang", "77": "anger", "78": "anger?", "79": "ar", "80": "at", "81": "b", "82": "c", "83": "ce", "84": "con", "85": "confu", "86": "confused", "87": "confused.", "88": "contr", "89": "contro", "90": "control", "91": "d", "92": "de", "93": "dea", "94": "deal", "95": "dec", "96": "decis", "97": "decision", "98": "decision?", "99": "det", "100": "detac", "101": "detach", "102": "detachme", "103": "detachmen", "104": "detachment", "105": "detachment?", "106": "di", "107": "dif", "108": "diff", "109": "diffi", "110": "diffic", "111": "difficu", "112": "difficul", "113": "difficult", "114": "dis", "115": "disc", "116": "disci", "117": "discipl", "118": "disciplin", "119": "discipline", "120": "discipline.", "121": "do", "122": "do?", "123": "e", "124": "er", "125": "f", "126": "fa", "127": "face", "128": "fai", "129": "fail", "130": "failure", "131": "failures?", "132": "fe", "133": "fear", "134": "fear?", "135": "fee", "136": "feel", "137": "find", "138": "fu", "139": "fut", "140": "future", "141": "future.", "142": "g", "143": "h", "144": "i", "145": "im", "146": "impo", "147": "impor", "148": "import", "149": "importan", "150": "importance", "151": "in", "152": "ind", "153": "inn", "154": "inner", "155": "ion", "156": "is", "157": "k", "158": "l", "159": "li", "160": "life", "161": "life?", "162": "lo", "163": "lost", "164": "m", "165": "ma", "166": "mak", "167": "make", "168": "man", "169": "many", "170": "me", "171": "mean", "172": "meanin", "173": "meaning", "174": "mind", "175": "mo", "176": "moti", "177": "motiv", "178": "motivat", "179": "motivate", "180": "motivated", "181": "motivated?", "182": "my", "183": "n", "184": "o", "185": "of", "186": "on", "187": "ou", "188": "ov", "189": "over", "190": "overc", "191": "overco", "192": "overcome", "193": "p", "194": "pe", "195": "pea", "196": "peace", "197": "peace?", "198": "pl", "199": "po", "200": "pr", "201": "prac", "202": "practi", "203": "practice", "204": "pu", "205": "pur", "206": "purpo", "207": "purpose", "208": "r", "209": "re", "210": "rel", "211": "relat", "212": "relation", "213": "relationsh", "214": "relationshi", "215": "relationship", "216": "relationships?", "217": "rest", "218": "restl", "219": "restle", "220": "restless?", "221": "ri", "222": "rig", "223": "righ", "224": "right", "225": "s", "226": "s?", "227": "se", "228": "sed", "229": "sh", "230": "shou", "231": "shoul", "232": "should", "233": "so", "234": "ss?", "235": "st", "236": "sta", "237": "stay", "238": "stre", "239": "stres", "240": "stressed", "241": "su", "242": "suc", "243": "succe", "244": "success?", "245": "t", "246": "th", "247": "the", "248": "ti", "249": "to", "250": "tr", "251": "tru", "252": "true", "253": "u", "254": "ure", "255": "v", "256": "w", "257": "wi", "258": "with", "259": "x", "260": "y", "261": "ं", "262": "ंत", "263": "ंध", "264": "ः", "265": "ः।'", "266": "अ", "267": "अं", "268": "अंत", "269": "अंतर्", "270": "अंतर्मनात", "271": "अंधार", "272": "अंधारात", "273": "अग्", "274": "अग्नी", "275": "अज्ञा", "276": "अज्ञाना", "277": "अज्ञानामुळेच", "278": "अति", "279": "अतिरे", "280": "अतिरेक", "281": "अत्य", "282": "अत्यंत", "283": "अध", "284": "अधर्", "285": "अधर्माची", "286": "अधिक", "287": "अधिकार", "288": "अधोग", "289": "अधोगती", "290": "अधोगतीला", "291": "अन", "292": "अना", "293": "अनावश्यक", "294": "अनि", "295": "अनिश्च", "296": "अनिश्चित", "297": "अनु", "298": "अनुभव", "299": "अने", "300": "अनेक", "301": "अनेकदा", "302": "अप", "303": "अपयश", "304": "अपयश,", "305": "अपे", "306": "अपेक्षा", "307": "अभ", "308": "अभ्यास", "309": "अर्", "310": "अर्ज", "311": "अर्जु", "312": "अर्जुना", "313": "अर्जुनाला", "314": "अर्थ", "315": "अल", "316": "अलि", "317": "अलिप", "318": "अलिप्त", "319": "अलिप्तता", "320": "अव", "321": "अवस्थ", "322": "अवस्था", "323": "अशा", "324": "अस", "325": "असतात.", "326": "असते.", "327": "असतो,", "328": "असतो.", "329": "असा", "330": "असावा.", "331": "असूनही", "332": "असो", "333": "अस्ति", "334": "अस्तित्", "335": "अस्तित्व", "336": "अह", "337": "अहं", "338": "अहंकार", "339": "अहंकारावर", "340": "आ", "341": "आंत", "342": "आंतर", "343": "आंतरिक", "344": "आच", "345": "आचर", "346": "आचरणात", "347": "आण", "348": "आणण्याचा", "349": "आणण्यासाठी", "350": "आणि", "351": "आत", "352": "आतच", "353": "आत्", "354": "आत्म", "355": "आत्मज", "356": "आत्मज्ञ", "357": "आत्मज्ञा", "358": "आत्मज्ञाना", "359": "आत्मज्ञानावर", "360": "आत्मविश्वास", "361": "आत्मा", "362": "आत्म्या", "363": "आत्म्याला", "364": "आदर", "365": "आधार", "366": "आधारित", "367": "आप", "368": "आपण", "369": "आपणही", "370": "आपल", "371": "आपला", "372": "आपली", "373": "आपले", "374": "आपल्या", "375": "आपल्याला", "376": "आय", "377": "आयु", "378": "आयुष्यात", "379": "आयुष्यातही", "380": "आवश्यक", "381": "आस", "382": "आसक्ती", "383": "आहात", "384": "आहात,", "385": "आहात.", "386": "आहे", "387": "आहे,", "388": "आहे.", "389": "आहे:", "390": "आहे?", "391": "इ", "392": "इत", "393": "इतके", "394": "इतर", "395": "इतरां", "396": "इतरांकड", "397": "इतरांकडून", "398": "इतरांशी", "399": "ई", "400": "ईल", "401": "उ", "402": "उच", "403": "उचलत", "404": "उठा", "405": "उत्त", "406": "उत्तर", "407": "उद्", "408": "उद्द", "409": "उद्दे", "410": "उद्देश", "411": "उद्धार", "412": "उपाया", "413": "उपायाची", "414": "ऊ", "415": "ए", "416": "एक", "417": "एकट", "418": "एकटे", "419": "एका", "420": "एकाग्र", "421": "एकाग्रतेने", "422": "ऐ", "423": "ऐक", "424": "ऐकण्या", "425": "ऐकण्यात,", "426": "ओ", "427": "ओळ", "428": "ओळखा", "429": "ओळखा,", "430": "क", "431": "कठी", "432": "कठीण", "433": "कड", "434": "कडे", "435": "कद", "436": "कदा", "437": "कदाच", "438": "कदाचन", "439": "कदाचन।'", "440": "कध", "441": "कधी", "442": "कधीना", "443": "कम", "444": "कमळा", "445": "कमळाचे", "446": "कमवावे", "447": "कमी", "448": "कर", "449": "करणे", "450": "करणे,", "451": "करण्या", "452": "करण्यात", "453": "करण्यातही", "454": "करण्यावर", "455": "करण्यासाठी", "456": "करता", "457": "करतो", "458": "करतो.", "459": "करा", "460": "करा.", "461": "करावा,", "462": "करावे?", "463": "करू", "464": "करू?", "465": "करून", "466": "कर्", "467": "कर्त", "468": "कर्तव", "469": "कर्तव्य", "470": "कर्तव्या", "471": "कर्तव्याला", "472": "कर्तव्यावर", "473": "कर्म", "474": "कर्मा", "475": "कर्माचा", "476": "कर्मात", "477": "कशी", "478": "कसा", "479": "कसे", "480": "का", "481": "काढ", "482": "काढू", "483": "कापू", "484": "काम", "485": "कामात", "486": "काय", "487": "काय?", "488": "कार", "489": "कारण", "490": "कारणी", "491": "कारणीभूत", "492": "कार्य", "493": "कार्यक्षमता", "494": "काल", "495": "काल्", "496": "काल्प", "497": "काल्पन", "498": "काल्पनिक", "499": "काही", "500": "काहीतर", "501": "काहीतरी", "502": "कि", "503": "किं", "504": "किंवा", "505": "की", "506": "की,", "507": "कु", "508": "कुठे", "509": "कुठेही", "510": "कृ", "511": "कृती", "512": "कृतीत", "513": "कृतीवर", "514": "के", "515": "कें", "516": "केंद्र", "517": "केंद्रित", "518": "केले", "519": "केलेली", "520": "केव", "521": "केवळ", "522": "को", "523": "कोण", "524": "कोणता", "525": "कोणताही", "526": "कोणत्या", "527": "कोणत्याही", "528": "क्", "529": "क्त", "530": "क्ती", "531": "क्र", "532": "क्रोध", "533": "क्रोधातून", "534": "क्ष", "535": "क्षम", "536": "क्षमता", "537": "क्षा", "538": "ख", "539": "खरा", "540": "खरे", "541": "खऱ", "542": "खऱ्या", "543": "खा", "544": "खो", "545": "खोली", "546": "खोलीत", "547": "ग", "548": "गर", "549": "गरज", "550": "गा", "551": "गाज", "552": "गाजवू", "553": "गु", "554": "गुण", "555": "गो", "556": "गोंध", "557": "गोंधळ", "558": "गोंधळले", "559": "गोंधळलेला", "560": "गोष्ट", "561": "गोष्टी", "562": "गोष्टीं", "563": "गोष्टींना", "564": "गोष्टींपासून", "565": "ग्", "566": "ग्र", "567": "ग्रा", "568": "ग्रास", "569": "ग्रासले", "570": "ग्ला", "571": "ग्लानिर्", "572": "ग्लानिर्भवति", "573": "घ", "574": "घड", "575": "घडत", "576": "घडतात.", "577": "घा", "578": "घाई", "579": "घाईघाई", "580": "घाईघाईने", "581": "घाब", "582": "घाबर", "583": "घाबरत", "584": "घे", "585": "घेण्यासाठी", "586": "घेत", "587": "घेतलेले", "588": "घेतो", "589": "घेतो)", "590": "घेतो).", "591": "घ्या", "592": "घ्या.", "593": "घ्यावा", "594": "घ्यावा?", "595": "च", "596": "चं", "597": "चंच", "598": "चंचल", "599": "चढ", "600": "चढ-", "601": "चढ-उ", "602": "चढ-उतार", "603": "चा", "604": "चाच", "605": "चाचप", "606": "चाचपडत", "607": "चालत", "608": "चि", "609": "चिं", "610": "चिंत", "611": "चिंता", "612": "चिंतेने", "613": "ची", "614": "चे", "615": "चै", "616": "चैत", "617": "चैतन", "618": "चैतन्यम", "619": "चैतन्यमय", "620": "च्या", "621": "छ", "622": "छि", "623": "छिन", "624": "छिन्", "625": "छिन्द", "626": "छिन्दन", "627": "छिन्दन्ति", "628": "ज", "629": "जग", "630": "जगतात", "631": "जगतातील", "632": "जगा", "633": "जा", "634": "जाण", "635": "जाणीव", "636": "जात", "637": "जातो", "638": "जातो,", "639": "जाळ", "640": "जाळू", "641": "जावे", "642": "जावे?", "643": "जीव", "644": "जीवन", "645": "जीवना", "646": "जीवनाकडे", "647": "जीवनाचा", "648": "जीवनाचे", "649": "जीवनात", "650": "जीवनातील", "651": "जे", "652": "जेव्हा", "653": "जो", "654": "जोपा", "655": "जोपासा", "656": "जोपासावी?", "657": "ज्ञ", "658": "ज्ञा", "659": "ज्ञान", "660": "ज्या", "661": "ज्याप्रमाणे", "662": "झ", "663": "झा", "664": "झाल", "665": "झाल्या", "666": "झाल्यामुळे", "667": "ञ", "668": "ट", "669": "टा", "670": "टाळा", "671": "टाळावा.", "672": "ठ", "673": "ठर", "674": "ठरते.", "675": "ठा", "676": "ठी", "677": "ठे", "678": "ठेव", "679": "ठेवल्यास", "680": "ठेवा", "681": "ठेवा,", "682": "ड", "683": "डत", "684": "डो", "685": "डोका", "686": "डोकाव", "687": "डोकावून", "688": "ढ", "689": "ण", "690": "णात", "691": "णार", "692": "णे", "693": "ण्या", "694": "ण्याचा", "695": "ण्यात", "696": "ण्यासाठी", "697": "त", "698": "त,", "699": "तर", "700": "तसे", "701": "तसेच", "702": "ता", "703": "ताकद", "704": "तात", "705": "तात.", "706": "तार", "707": "ति", "708": "तिला", "709": "ती", "710": "तीच", "711": "तु", "712": "तुझ", "713": "तुझा", "714": "तुझी", "715": "तुम", "716": "तुमचा", "717": "तुमची", "718": "तुमचे", "719": "तुमच्या", "720": "तुम्", "721": "तुम्हा", "722": "तुम्हाला", "723": "तुम्ही", "724": "तुल", "725": "तुलना", "726": "ते", "727": "ते.", "728": "तेच", "729": "तेने", "730": "तेव्हा", "731": "तेव्हाच", "732": "तो", "733": "तो,", "734": "तो.", "735": "त्", "736": "त्त", "737": "त्य", "738": "त्या", "739": "त्याऐ", "740": "त्याऐव", "741": "त्याऐवज", "742": "त्याऐवजी,", "743": "त्याचा", "744": "त्याच्या", "745": "त्यामुळे", "746": "त्यामुळे,", "747": "त्याला", "748": "थ", "749": "थां", "750": "थांब", "751": "थांबव", "752": "थांबवतो", "753": "थांबवा,", "754": "थोडा", "755": "द", "756": "दर", "757": "दह", "758": "दहति", "759": "दि", "760": "दिव", "761": "दिवसात", "762": "दी", "763": "दीर्", "764": "दीर्घ", "765": "दु", "766": "दु:", "767": "दु:ख", "768": "दु:ख,", "769": "दु:खा", "770": "दु:खाचे", "771": "दु:खाच्या", "772": "दू", "773": "दूर", "774": "दृ", "775": "दृष्ट", "776": "दृष्टिक", "777": "दृष्टिको", "778": "दृष्टिकोनात", "779": "दृष्टिकोनातून", "780": "दैनं", "781": "दैनंदि", "782": "दैनंदिन", "783": "दो", "784": "दोन", "785": "दोन्", "786": "दोन्ही", "787": "द्", "788": "द्ध", "789": "द्या", "790": "द्यावे", "791": "द्र", "792": "ध", "793": "धर्", "794": "धर्म", "795": "धर्मस्य", "796": "धर्माची", "797": "धार", "798": "धै", "799": "धैर्या", "800": "धैर्याने", "801": "ध्ये", "802": "ध्येया", "803": "ध्येयाकडे", "804": "ध्येयापर", "805": "ध्येयापर्य", "806": "ध्येयापर्यंत", "807": "न", "808": "नको", "809": "नको.", "810": "नकोस", "811": "नक्", "812": "नक्की", "813": "नक्कीच", "814": "नये", "815": "नये.", "816": "नव्", "817": "नव्हे", "818": "नव्हे,", "819": "नष्ट", "820": "नसा", "821": "नसावा,", "822": "नसावी", "823": "नसावी.", "824": "नसून", "825": "ना", "826": "नात", "827": "नाते", "828": "नातेसं", "829": "नातेसंब", "830": "नातेसंबंध", "831": "नातेसंबंधां", "832": "नातेसंबंधांना", "833": "नातेसंबंधांमध्ये", "834": "नात्मान", "835": "नात्मानम", "836": "नात्मानमव", "837": "नात्मानमवसा", "838": "नात्मानमवसाद", "839": "नात्मानमवसादये", "840": "नात्मानमवसादयेत्", "841": "नात्मानमवसादयेत्।'", "842": "नाश", "843": "नाही", "844": "नाही,", "845": "नाही.", "846": "नाहीत,", "847": "नाहीशा", "848": "नि", "849": "निय", "850": "नियंत", "851": "नियंत्र", "852": "नियंत्रण", "853": "नियंत्रणात", "854": "नियमित", "855": "नियमितता", "856": "निर्", "857": "निर्ण", "858": "निर्णय", "859": "निर्माण", "860": "नी", "861": "ने", "862": "नेऊ", "863": "नेण्यासाठी", "864": "नेह", "865": "नेहमी", "866": "नेहमीच", "867": "नैनं", "868": "प", "869": "पण", "870": "पर", "871": "परि", "872": "परिण", "873": "परिणा", "874": "परिणाम", "875": "परिणामां", "876": "परिणामांच्या", "877": "परिणामांवर", "878": "परिस्थिती", "879": "परी", "880": "परीक्षा", "881": "पश्च", "882": "पश्चात", "883": "पश्चात्त", "884": "पश्चात्ता", "885": "पश्चात्ताप", "886": "पश्चात्तापा", "887": "पश्चात्तापाला", "888": "पहि", "889": "पहिली", "890": "पा", "891": "पाठी", "892": "पाठीशी", "893": "पाड", "894": "पाडतो,", "895": "पाण", "896": "पाणी", "897": "पाण्या", "898": "पाण्याने", "899": "पाण्यावर", "900": "पान", "901": "पाय", "902": "पायरी", "903": "पाया", "904": "पार", "905": "पाव", "906": "पावक", "907": "पावकः।'", "908": "पावले", "909": "पासून", "910": "पाह", "911": "पाहण्यासाठी", "912": "पाहा", "913": "पाहा.", "914": "पाहावे", "915": "पाहि", "916": "पाहिजे", "917": "पाहिजे.", "918": "पु", "919": "पुढ", "920": "पुढे", "921": "पू", "922": "पूर्ण", "923": "पो", "924": "पोहो", "925": "पोहोच", "926": "पोहोचव", "927": "पोहोचवती", "928": "पोहोचवतील.", "929": "प्र", "930": "प्रत", "931": "प्रतिक", "932": "प्रतिक्र", "933": "प्रतिक्रि", "934": "प्रतिक्रिया", "935": "प्रत्ये", "936": "प्रत्येक", "937": "प्रमा", "938": "प्रमाणे", "939": "प्रय", "940": "प्रयत्", "941": "प्रयत्न", "942": "प्रवास", "943": "प्रश्", "944": "प्रश्न", "945": "प्रश्ना", "946": "प्रश्नां", "947": "प्रश्नांना", "948": "प्रश्नाचे", "949": "प्रसं", "950": "प्रसंग", "951": "प्रसंगातून", "952": "प्रा", "953": "प्रामाण", "954": "प्रामाणिक", "955": "प्रामाणिकप", "956": "प्रामाणिकपणे", "957": "प्रे", "958": "प्रेम", "959": "प्रेर", "960": "प्रेरित", "961": "फ", "962": "फक्त", "963": "फले", "964": "फलेष", "965": "फलेषु", "966": "फळ", "967": "फळा", "968": "फळां", "969": "फळांवर", "970": "फळाची", "971": "ब", "972": "बद", "973": "बदल", "974": "बदलण्या", "975": "बदलण्याची", "976": "बा", "977": "बाळ", "978": "बाळगा", "979": "बाळगावा", "980": "बाह", "981": "बाहे", "982": "बाहेर", "983": "बाह्य", "984": "बु", "985": "बुद्ध", "986": "बुद्धी", "987": "बुद्धीचा", "988": "बो", "989": "बोल", "990": "बोलण्यात", "991": "भ", "992": "भग", "993": "भगव", "994": "भगवद", "995": "भगवद्ग", "996": "भगवद्गी", "997": "भगवद्गीते", "998": "भगवद्गीतेमध्ये", "999": "भगवा", "1000": "भगवान", "1001": "भय", "1002": "भर", "1003": "भरक", "1004": "भरकट", "1005": "भरकटत", "1006": "भरलेले", "1007": "भव", "1008": "भवति", "1009": "भवि", "1010": "भविष्य", "1011": "भविष्या", "1012": "भविष्याची", "1013": "भविष्यात", "1014": "भार", "1015": "भारत", "1016": "भारत।'", "1017": "भि", "1018": "भिज", "1019": "भिजत", "1020": "भिजवू", "1021": "भी", "1022": "भीती", "1023": "भीतीवर", "1024": "भूत", "1025": "भूतका", "1026": "भूतकाळा", "1027": "भूतकाळाचा", "1028": "म", "1029": "मज", "1030": "मजब", "1031": "मजबूत", "1032": "मध", "1033": "मध्यम", "1034": "मध्ये", "1035": "मन", "1036": "मनन", "1037": "मना", "1038": "मनाची", "1039": "मनात", "1040": "मनु", "1041": "मनुष्य", "1042": "मनुष्या", "1043": "मनुष्याचा", "1044": "मनुष्याने", "1045": "मर्या", "1046": "मर्याद", "1047": "मर्यादां", "1048": "मर्यादांचा", "1049": "मला", "1050": "मह", "1051": "महत्त", "1052": "महत्त्", "1053": "महत्त्व", "1054": "महत्त्वा", "1055": "महत्त्वाचा", "1056": "महत्त्वाचे", "1057": "मा", "1058": "माग", "1059": "मागून", "1060": "माची", "1061": "माझ", "1062": "माझे", "1063": "माण", "1064": "माणसा", "1065": "माणसाचा", "1066": "मात", "1067": "मान", "1068": "मानणे", "1069": "मानवी", "1070": "मानस", "1071": "मानसिक", "1072": "मार", "1073": "मार्ग", "1074": "मार्गावर", "1075": "मि", "1076": "मित", "1077": "मित्र", "1078": "मिळ", "1079": "मिळणार", "1080": "मिळत", "1081": "मिळव", "1082": "मिळवणे", "1083": "मिळवणे.", "1084": "मिळवा", "1085": "मिळवावी?", "1086": "मिळवावे", "1087": "मिळवावे?", "1088": "मिळे", "1089": "मिळेल.", "1090": "मी", "1091": "मु", "1092": "मुक्ती", "1093": "मुक्तीचे", "1094": "मुळे", "1095": "मुळेच", "1096": "मू", "1097": "मूळ", "1098": "मो", "1099": "मोठा", "1100": "मोठे", "1101": "मोह", "1102": "मोहा", "1103": "मोहात", "1104": "मोहातून", "1105": "मोहापासून", "1106": "म्", "1107": "म्ह", "1108": "म्हट", "1109": "म्हटले", "1110": "म्हण", "1111": "म्हणजे", "1112": "म्हणजेच", "1113": "म्हणून", "1114": "म्हणूनच", "1115": "म्हणूनच,", "1116": "य", "1117": "यद", "1118": "यदा", "1119": "यश", "1120": "यशा", "1121": "यशाचा", "1122": "या", "1123": "यां", "1124": "यांची", "1125": "याचा", "1126": "यामुळेच", "1127": "यासाठी", "1128": "ये", "1129": "येईल", "1130": "येईल,", "1131": "येत", "1132": "येते", "1133": "येते?", "1134": "येतो.", "1135": "योग", "1136": "योग्य", "1137": "र", "1138": "रह", "1139": "रहस्य", "1140": "रा", "1141": "राख", "1142": "राखणे", "1143": "राग", "1144": "रागावर", "1145": "रात", "1146": "रात्र", "1147": "रात्री", "1148": "रात्रीत", "1149": "राह", "1150": "राहणे", "1151": "राहणे.", "1152": "राहण्याचा", "1153": "राहा", "1154": "राहा,", "1155": "राहा.", "1156": "राहाय", "1157": "राहायला", "1158": "राहावे?", "1159": "राहूनही", "1160": "री", "1161": "रे", "1162": "र्", "1163": "र्ण", "1164": "र्या", "1165": "ऱ", "1166": "ल", "1167": "ल.", "1168": "लक्ष", "1169": "लक्षात", "1170": "लत", "1171": "लहान", "1172": "ला", "1173": "लाग", "1174": "लागतात", "1175": "लागतात.", "1176": "लागते.", "1177": "लागा", "1178": "लागा.", "1179": "लागे", "1180": "लागेल.", "1181": "लाट", "1182": "लाटां", "1183": "लाटांनी", "1184": "लाटांप्रमाणे", "1185": "लाटांप्रमाणेच", "1186": "लावले", "1187": "लावलेली", "1188": "ली", "1189": "ले", "1190": "लेले", "1191": "ल्यास", "1192": "ळ", "1193": "ळा", "1194": "ळे", "1195": "व", "1196": "वर", "1197": "वर्त", "1198": "वर्तमा", "1199": "वर्तमान", "1200": "वर्तमानका", "1201": "वर्तमानकाळ", "1202": "वर्तमानकाळात", "1203": "वर्तमानकाळातील", "1204": "वर्तमानात", "1205": "वले", "1206": "वश", "1207": "वश्य", "1208": "वश्यक", "1209": "वा", "1210": "वा,", "1211": "वा.", "1212": "वाट", "1213": "वाटते.", "1214": "वाढ", "1215": "वार", "1216": "वारं", "1217": "वारंवार", "1218": "वारा", "1219": "वाळ", "1220": "वाळवू", "1221": "वावे", "1222": "वास", "1223": "वि", "1224": "विच", "1225": "विचार", "1226": "विचारश", "1227": "विचारशक्ती", "1228": "विचारा", "1229": "विचारां", "1230": "विचारांचे", "1231": "विचारांशि", "1232": "विचारांशिवा", "1233": "विचारांशिवाय", "1234": "विचारात", "1235": "विचाराने", "1236": "विज", "1237": "विजय", "1238": "विनाश", "1239": "विवे", "1240": "विवेक", "1241": "विशि", "1242": "विशिष्ट", "1243": "विश्र", "1244": "विश्रांती", "1245": "विश्रांतीत,", "1246": "विश्वास", "1247": "वी", "1248": "वी?", "1249": "वू", "1250": "वे", "1251": "वे?", "1252": "वेग", "1253": "वेगळा", "1254": "वेळ", "1255": "वेळी,", "1256": "वै", "1257": "वैराग", "1258": "वैराग्य", "1259": "व्", "1260": "व्य", "1261": "व्यक्ती", "1262": "व्यक्तीचा", "1263": "व्यक्तीला", "1264": "व्हा", "1265": "श", "1266": "शक", "1267": "शकत", "1268": "शकतात.", "1269": "शकते.", "1270": "शकतो,", "1271": "शक्य", "1272": "शत", "1273": "शत्र", "1274": "शत्रू", "1275": "शरी", "1276": "शरीर", "1277": "शस्त", "1278": "शस्त्र", "1279": "शस्त्रा", "1280": "शस्त्राण", "1281": "शस्त्राणि", "1282": "शस्त्रे", "1283": "शा", "1284": "शांत", "1285": "शांती", "1286": "शि", "1287": "शिक", "1288": "शिकले", "1289": "शिकव", "1290": "शिकवण्यासाठी", "1291": "शिक्षा", "1292": "शिस्त", "1293": "शिस्ती", "1294": "शिस्तीचे", "1295": "शी", "1296": "शे", "1297": "शेव", "1298": "शेवट", "1299": "शेवटी,", "1300": "शोध", "1301": "शोधण्याचा", "1302": "शोधण्यासाठी", "1303": "श्", "1304": "श्च", "1305": "श्र", "1306": "श्रद्ध", "1307": "श्रद्धे", "1308": "श्रद्धेने", "1309": "श्री", "1310": "श्रीकृ", "1311": "श्रीकृष्", "1312": "श्रीकृष्ण", "1313": "श्रीकृष्णांनी", "1314": "श्वास", "1315": "ष", "1316": "ष्", "1317": "ष्ट", "1318": "ष्य", "1319": "ष्या", "1320": "ष्यात", "1321": "स", "1322": "सं", "1323": "संतुल", "1324": "संतुलन", "1325": "संपूर्ण", "1326": "संय", "1327": "संयम", "1328": "संसार", "1329": "संसारात", "1330": "सत्य", "1331": "सदु", "1332": "सदुप", "1333": "सदुपयोग", "1334": "सम", "1335": "समज", "1336": "समजण्या", "1337": "समजण्यासार", "1338": "समजण्यासारख", "1339": "समजण्यासारखी", "1340": "समजून", "1341": "समस", "1342": "समस्या", "1343": "समस्यां", "1344": "समस्यांवर", "1345": "समस्यांवरील", "1346": "समान", "1347": "समु", "1348": "समुद्र", "1349": "समुद्रा", "1350": "समुद्राच्या", "1351": "समो", "1352": "समोर", "1353": "समोरची", "1354": "सम्", "1355": "सम्मो", "1356": "सम्मोह", "1357": "सम्मोहः", "1358": "सम्मोहात", "1359": "सम्मोहात्", "1360": "सम्मोहात्स्मृ", "1361": "सम्मोहात्स्मृति", "1362": "सम्मोहात्स्मृतिवि", "1363": "सम्मोहात्स्मृतिविभ", "1364": "सम्मोहात्स्मृतिविभ्र", "1365": "सम्मोहात्स्मृतिविभ्रम", "1366": "सम्मोहात्स्मृतिविभ्रमः।'", "1367": "सर्", "1368": "सर्व", "1369": "सर्वप्र", "1370": "सर्वप्रथ", "1371": "सर्वप्रथम", "1372": "सर्वात", "1373": "सर्वो", "1374": "सर्वोत्त", "1375": "सर्वोत्तम", "1376": "सव", "1377": "सवय", "1378": "सा", "1379": "सां", "1380": "सांग", "1381": "सांगतो", "1382": "सांगा", "1383": "सांगा.", "1384": "सांगित", "1385": "सांगितले", "1386": "साठी", "1387": "सात", "1388": "सातत्य", "1389": "सातत्या", "1390": "सातत्याची", "1391": "सातत्याने", "1392": "साध", "1393": "साधन", "1394": "साध्य", "1395": "सामो", "1396": "सामोरे", "1397": "सार", "1398": "सि", "1399": "सिद्ध", "1400": "सिद्धांत", "1401": "सु", "1402": "सुं", "1403": "सुंदर", "1404": "सुख", "1405": "सुधार", "1406": "सुधारतात.", "1407": "सून", "1408": "से", "1409": "सोडा", "1410": "सोडा.", "1411": "स्", "1412": "स्त", "1413": "स्थ", "1414": "स्थि", "1415": "स्थिती", "1416": "स्थिर", "1417": "स्थिरता", "1418": "स्म", "1419": "स्मृ", "1420": "स्मृती", "1421": "स्मृतीचा", "1422": "स्य", "1423": "स्व", "1424": "स्वत", "1425": "स्वतः", "1426": "स्वतःच", "1427": "स्वतःच्या", "1428": "स्वतःला", "1429": "स्वतःवर", "1430": "स्वर", "1431": "स्वरू", "1432": "स्वरूपा", "1433": "स्वरूपाची", "1434": "स्वी", "1435": "स्वीकार", "1436": "स्वीकारल्यास", "1437": "ह", "1438": "हा", "1439": "हाच", "1440": "हात", "1441": "हान", "1442": "हानी", "1443": "हि", "1444": "ही", "1445": "हीच", "1446": "हे", "1447": "हेच", "1448": "हो", "1449": "होईल", "1450": "होऊ", "1451": "होणार", "1452": "होणारे", "1453": "होणे", "1454": "होतात.", "1455": "होते", "1456": "होते,", "1457": "होते.", "1458": "होतो", "1459": "होतो,", "1460": "होतो.", "1461": "होय", "1462": "होय.", "1463": "होव", "1464": "होवो", "1465": "होवो.", "1466": "ा", "1467": "ां", "1468": "ांत", "1469": "ांती", "1470": "ांनी", "1471": "ात", "1472": "ातून", "1473": "ार", "1474": "ावर", "1475": "ि", "1476": "िक", "1477": "ित", "1478": "ी", "1479": "ी,", "1480": "ील", "1481": "ीव", "1482": "ु", "1483": "ू", "1484": "ूत", "1485": "ून", "1486": "ूनही", "1487": "ृ", "1488": "े", "1489": "ै", "1490": "ैन", "1491": "ैनं", "1492": "ो", "1493": "ोग", "1494": "ोड", "1495": "ोडा", "1496": "ोध", "1497": "्", "1498": "्ग", "1499": "्ञ", "1500": "्त", "1501": "्ति", "1502": "्मान", "1503": "्य", "1504": "्यम", "1505": "्या", "1506": "्यास", "1507": "्ये", "1508": "्र", "1509": "।", "1510": "।'"}}